<pad>	0
</s>	0
<s>	0
<unk>	0
<|im_start|>	0
<|im_end|>	0
<think>	0
</think>	0
<tools>	0
</tools>	0
<tool_call>	0
</tool_call>	0
<tool_result>	0
</tool_result>	0
<0x00>	0
<0x01>	0
<0x02>	0
<0x03>	0
<0x04>	0
<0x05>	0
<0x06>	0
<0x07>	0
<0x08>	0
<0x09>	0
<0x0A>	0
<0x0B>	0
<0x0C>	0
<0x0D>	0
<0x0E>	0
<0x0F>	0
<0x10>	0
<0x11>	0
<0x12>	0
<0x13>	0
<0x14>	0
<0x15>	0
<0x16>	0
<0x17>	0
<0x18>	0
<0x19>	0
<0x1A>	0
<0x1B>	0
<0x1C>	0
<0x1D>	0
<0x1E>	0
<0x1F>	0
<0x20>	0
<0x21>	0
<0x22>	0
<0x23>	0
<0x24>	0
<0x25>	0
<0x26>	0
<0x27>	0
<0x28>	0
<0x29>	0
<0x2A>	0
<0x2B>	0
<0x2C>	0
<0x2D>	0
<0x2E>	0
<0x2F>	0
<0x30>	0
<0x31>	0
<0x32>	0
<0x33>	0
<0x34>	0
<0x35>	0
<0x36>	0
<0x37>	0
<0x38>	0
<0x39>	0
<0x3A>	0
<0x3B>	0
<0x3C>	0
<0x3D>	0
<0x3E>	0
<0x3F>	0
<0x40>	0
<0x41>	0
<0x42>	0
<0x43>	0
<0x44>	0
<0x45>	0
<0x46>	0
<0x47>	0
<0x48>	0
<0x49>	0
<0x4A>	0
<0x4B>	0
<0x4C>	0
<0x4D>	0
<0x4E>	0
<0x4F>	0
<0x50>	0
<0x51>	0
<0x52>	0
<0x53>	0
<0x54>	0
<0x55>	0
<0x56>	0
<0x57>	0
<0x58>	0
<0x59>	0
<0x5A>	0
<0x5B>	0
<0x5C>	0
<0x5D>	0
<0x5E>	0
<0x5F>	0
<0x60>	0
<0x61>	0
<0x62>	0
<0x63>	0
<0x64>	0
<0x65>	0
<0x66>	0
<0x67>	0
<0x68>	0
<0x69>	0
<0x6A>	0
<0x6B>	0
<0x6C>	0
<0x6D>	0
<0x6E>	0
<0x6F>	0
<0x70>	0
<0x71>	0
<0x72>	0
<0x73>	0
<0x74>	0
<0x75>	0
<0x76>	0
<0x77>	0
<0x78>	0
<0x79>	0
<0x7A>	0
<0x7B>	0
<0x7C>	0
<0x7D>	0
<0x7E>	0
<0x7F>	0
<0x80>	0
<0x81>	0
<0x82>	0
<0x83>	0
<0x84>	0
<0x85>	0
<0x86>	0
<0x87>	0
<0x88>	0
<0x89>	0
<0x8A>	0
<0x8B>	0
<0x8C>	0
<0x8D>	0
<0x8E>	0
<0x8F>	0
<0x90>	0
<0x91>	0
<0x92>	0
<0x93>	0
<0x94>	0
<0x95>	0
<0x96>	0
<0x97>	0
<0x98>	0
<0x99>	0
<0x9A>	0
<0x9B>	0
<0x9C>	0
<0x9D>	0
<0x9E>	0
<0x9F>	0
<0xA0>	0
<0xA1>	0
<0xA2>	0
<0xA3>	0
<0xA4>	0
<0xA5>	0
<0xA6>	0
<0xA7>	0
<0xA8>	0
<0xA9>	0
<0xAA>	0
<0xAB>	0
<0xAC>	0
<0xAD>	0
<0xAE>	0
<0xAF>	0
<0xB0>	0
<0xB1>	0
<0xB2>	0
<0xB3>	0
<0xB4>	0
<0xB5>	0
<0xB6>	0
<0xB7>	0
<0xB8>	0
<0xB9>	0
<0xBA>	0
<0xBB>	0
<0xBC>	0
<0xBD>	0
<0xBE>	0
<0xBF>	0
<0xC0>	0
<0xC1>	0
<0xC2>	0
<0xC3>	0
<0xC4>	0
<0xC5>	0
<0xC6>	0
<0xC7>	0
<0xC8>	0
<0xC9>	0
<0xCA>	0
<0xCB>	0
<0xCC>	0
<0xCD>	0
<0xCE>	0
<0xCF>	0
<0xD0>	0
<0xD1>	0
<0xD2>	0
<0xD3>	0
<0xD4>	0
<0xD5>	0
<0xD6>	0
<0xD7>	0
<0xD8>	0
<0xD9>	0
<0xDA>	0
<0xDB>	0
<0xDC>	0
<0xDD>	0
<0xDE>	0
<0xDF>	0
<0xE0>	0
<0xE1>	0
<0xE2>	0
<0xE3>	0
<0xE4>	0
<0xE5>	0
<0xE6>	0
<0xE7>	0
<0xE8>	0
<0xE9>	0
<0xEA>	0
<0xEB>	0
<0xEC>	0
<0xED>	0
<0xEE>	0
<0xEF>	0
<0xF0>	0
<0xF1>	0
<0xF2>	0
<0xF3>	0
<0xF4>	0
<0xF5>	0
<0xF6>	0
<0xF7>	0
<0xF8>	0
<0xF9>	0
<0xFA>	0
<0xFB>	0
<0xFC>	0
<0xFD>	0
<0xFE>	0
<0xFF>	0
on	-0
ti	-1
er	-2
in	-3
en	-4
es	-5
al	-6
▁t	-7
an	-8
re	-9
▁c	-10
▁s	-11
tion	-12
or	-13
▁p	-14
is	-15
▁a	-16
ic	-17
▁d	-18
ar	-19
▁th	-20
at	-21
it	-22
ed	-23
▁m	-24
ro	-25
▁f	-26
ent	-27
ing	-28
le	-29
ation	-30
▁in	-31
▁w	-32
▁b	-33
ec	-34
▁o	-35
▁the	-36
▁-	-37
om	-38
st	-39
▁e	-40
ra	-41
ou	-42
▁re	-43
":	-44
as	-45
ol	-46
et	-47
▁l	-48
and	-49
ri	-50
el	-51
ce	-52
▁h	-53
▁con	-54
il	-55
▁n	-56
ur	-57
em	-58
ac	-59
▁to	-60
▁of	-61
##	-62
▁T	-63
un	-64
▁C	-65
if	-66
ul	-67
am	-68
**	-69
us	-70
id	-71
,"	-72
qu	-73
tic	-74
ig	-75
im	-76
▁S	-77
▁and	-78
th	-79
ly	-80
ess	-81
ve	-82
ter	-83
▁v	-84
ment	-85
▁g	-86
▁st	-87
ow	-88
":"	-89
ist	-90
ut	-91
","	-92
ity	-93
ch	-94
ical	-95
▁→	-96
▁"	-97
ers	-98
▁pro	-99
os	-100
▁A	-101
▁P	-102
▁com	-103
ab	-104
▁for	-105
▁Th	-106
od	-107
ate	-108
og	-109
ion	-110
ts	-111
▁(	-112
ir	-113
▁r	-114
▁I	-115
▁de	-116
tin	-117
pe	-118
▁M	-119
ot	-120
ct	-121
{"	-122
um	-123
ge	-124
▁ex	-125
ad	-126
▁1	-127
ain	-128
▁##	-129
▁###	-130
ant	-131
▁wh	-132
▁**	-133
ith	-134
ure	-135
op	-136
▁un	-137
ver	-138
▁E	-139
pp	-140
▁B	-141
oc	-142
ption	-143
pec	-144
▁as	-145
▁H	-146
ific	-147
ty	-148
ence	-149
tive	-150
ru	-151
te	-152
▁R	-153
▁comp	-154
▁ch	-155
ations	-156
▁with	-157
▁D	-158
ire	-159
▁The	-160
ting	-161
▁su	-162
":{"	-163
di	-164
per	-165
▁●	-166
▁on	-167
ore	-168
cri	-169
est	-170
▁L	-171
ay	-172
igh	-173
▁is	-174
iz	-175
pl	-176
ial	-177
▁an	-178
▁N	-179
▁that	-180
▁al	-181
ass	-182
▁be	-183
end	-184
▁F	-185
escri	-186
▁ac	-187
ff	-188
▁=	-189
▁W	-190
▁or	-191
ans	-192
ap	-193
ual	-194
..	-195
▁2	-196
fer	-197
me	-198
escription	-199
tical	-200
ame	-201
▁en	-202
description	-203
ie	-204
se	-205
rom	-206
ary	-207
▁sy	-208
ech	-209
ction	-210
▁spec	-211
orm	-212
ak	-213
ies	-214
ys	-215
our	-216
▁G	-217
ance	-218
▁le	-219
▁im	-220
type	-221
ork	-222
ag	-223
olog	-224
ution	-225
▁qu	-226
ine	-227
oun	-228
iv	-229
enti	-230
ach	-231
gh	-232
act	-233
▁pr	-234
▁ne	-235
▁it	-236
▁from	-237
quire	-238
▁ad	-239
▁k	-240
ath	-241
}}	-242
ism	-243
▁par	-244
▁y	-245
ip	-246
▁se	-247
ib	-248
ens	-249
ik	-250
tern	-251
▁res	-252
ld	-253
▁dis	-254
stem	-255
out	-256
▁In	-257
vel	-258
ign	-259
enc	-260
vid	-261
ph	-262
ult	-263
du	-264
▁ab	-265
▁app	-266
all	-267
ural	-268
der	-269
iti	-270
▁pre	-271
ous	-272
ey	-273
ia	-274
ory	-275
▁cont	-276
ect	-277
▁dif	-278
age	-279
str	-280
▁K	-281
par	-282
ere	-283
ple	-284
.","	-285
form	-286
ition	-287
xt	-288
▁sh	-289
de	-290
able	-291
ost	-292
▁per	-293
por	-294
▁but	-295
rans	-296
▁U	-297
ard	-298
:**	-299
▁Con	-300
00	-301
cess	-302
user	-303
lu	-304
rou	-305
ery	-306
ates	-307
ated	-308
▁tra	-309
▁+	-310
▁not	-311
la	-312
ich	-313
▁j	-314
▁3	-315
ility	-316
ight	-317
▁system	-318
ang	-319
▁differ	-320
▁'	-321
ould	-322
▁cons	-323
ail	-324
quired	-325
ors	-326
▁Q	-327
name	-328
**:	-329
▁by	-330
istant	-331
ish	-332
▁can	-333
ss	-334
▁ti	-335
vol	-336
ven	-337
▁specific	-338
ments	-339
ruct	-340
▁lik	-341
assistant	-342
ents	-343
eth	-344
ely	-345
ile	-346
av	-347
▁Qu	-348
echan	-349
dic	-350
dition	-351
ese	-352
▁comple	-353
rain	-354
▁this	-355
▁4	-356
ational	-357
▁inter	-358
▁conf	-359
are	-360
▁more	-361
ome	-362
...	-363
▁at	-364
min	-365
ell	-366
rac	-367
▁vs	-368
▁me	-369
▁ar	-370
ari	-371
ci	-372
▁rel	-373
▁pol	-374
▁O	-375
▁inc	-376
res	-377
▁la	-378
▁trans	-379
yn	-380
work	-381
text	-382
ue	-383
ative	-384
ress	-385
required	-386
▁eff	-387
ear	-388
▁are	-389
onom	-390
▁1.	-391
▁This	-392
erv	-393
fic	-394
▁em	-395
▁was	-396
▁ph	-397
ric	-398
oth	-399
ong	-400
▁about	-401
▁do	-402
tit	-403
ati	-404
tain	-405
▁◐	-406
und	-407
▁mod	-408
▁ins	-409
ern	-410
▁bet	-411
ological	-412
string	-413
▁Wh	-414
we	-415
ust	-416
rough	-417
lic	-418
▁St	-419
▁appro	-420
esis	-421
▁reg	-422
imit	-423
ally	-424
▁ass	-425
▁V	-426
▁Query	-427
now	-428
▁5	-429
echanism	-430
ular	-431
▁inf	-432
ill	-433
ob	-434
▁19	-435
alys	-436
▁Re	-437
▁cre	-438
aus	-439
alysis	-440
▁rec	-441
▁z	-442
ord	-443
rame	-444
▁ha	-445
▁than	-446
▁2.	-447
istor	-448
ater	-449
pro	-450
▁through	-451
abl	-452
▁const	-453
▁cl	-454
arg	-455
▁int	-456
▁∴	-457
thesis	-458
ulti	-459
val	-460
ive	-461
▁Ch	-462
▁their	-463
▁3.	-464
ase	-465
▁sp	-466
▁pl	-467
eters	-468
hip	-469
▁different	-470
ateg	-471
ub	-472
ast	-473
ort	-474
pos	-475
pt	-476
▁under	-477
▁gen	-478
▁ro	-479
anc	-480
ultural	-481
▁co	-482
▁comm	-483
velop	-484
▁det	-485
ound	-486
▁he	-487
▁An	-488
▁des	-489
▁complex	-490
▁us	-491
ability	-492
▁need	-493
ulation	-494
attern	-495
ection	-496
ges	-497
▁sign	-498
▁pos	-499
▁4.	-500
pon	-501
▁all	-502
ov	-503
ization	-504
ameters	-505
ement	-506
onomic	-507
▁Key	-508
▁bec	-509
raph	-510
▁struct	-511
ures	-512
▁we	-513
istorical	-514
ms	-515
▁sc	-516
ry	-517
formation	-518
▁str	-519
ack	-520
ramework	-521
▁work	-522
led	-523
},"	-524
ween	-525
▁over	-526
▁approach	-527
▁between	-528
echn	-529
ice	-530
parameters	-531
ross	-532
▁mechanism	-533
ud	-534
pend	-535
▁man	-536
ties	-537
▁fact	-538
▁di	-539
▁develop	-540
ite	-541
ian	-542
▁pattern	-543
one	-544
▁J	-545
0.	-546
ther	-547
▁dec	-548
ber	-549
ograph	-550
ency	-551
king	-552
▁Com	-553
ification	-554
over	-555
tiv	-556
ology	-557
▁ec	-558
▁ter	-559
ata	-560
yp	-561
ood	-562
."	-563
ond	-564
ities	-565
ark	-566
ten	-567
▁How	-568
ble	-569
▁limit	-570
inal	-571
ential	-572
▁est	-573
▁leg	-574
ision	-575
▁they	-576
▁form	-577
▁like	-578
▁these	-579
▁would	-580
ind	-581
urr	-582
▁constrain	-583
▁rep	-584
▁when	-585
▁vari	-586
tim	-587
ace	-588
▁pri	-589
titution	-590
rol	-591
he	-592
rib	-593
▁process	-594
ament	-595
itical	-596
▁id	-597
▁you	-598
▁ra	-599
▁○	-600
▁signific	-601
ne	-602
▁have	-603
ethod	-604
iss	-605
▁how	-606
▁te	-607
ible	-608
▁sim	-609
erg	-610
ied	-611
irect	-612
ysical	-613
eral	-614
nowled	-615
istic	-616
ced	-617
ration	-618
▁while	-619
ating	-620
▁au	-621
ather	-622
ier	-623
atic	-624
,{"	-625
▁effec	-626
-1	-627
▁sub	-628
▁pres	-629
▁col	-630
▁framework	-631
ves	-632
essment	-633
rue	-634
estion	-635
▁rem	-636
▁ele	-637
▁acc	-638
ici	-639
up	-640
▁6	-641
▁ob	-642
▁its	-643
volution	-644
ality	-645
ically	-646
▁cap	-647
cl	-648
▁ag	-649
▁5.	-650
▁pers	-651
▁pe	-652
▁provid	-653
low	-654
▁def	-655
unction	-656
ocial	-657
":[	-658
▁Par	-659
uring	-660
▁analysis	-661
ized	-662
empor	-663
ep	-664
ynthesis	-665
ks	-666
con	-667
ature	-668
▁which	-669
▁20	-670
quir	-671
▁partic	-672
▁other	-673
▁out	-674
port	-675
▁dem	-676
▁context	-677
▁prac	-678
ser	-679
ces	-680
▁But	-681
ject	-682
▁med	-683
ctual	-684
ene	-685
ior	-686
idence	-687
ographic	-688
▁main	-689
▁ma	-690
▁cor	-691
▁techn	-692
ased	-693
ablish	-694
ower	-695
row	-696
eck	-697
▁likely	-698
▁his	-699
▁data	-700
urrent	-701
▁no	-702
▁influ	-703
teg	-704
pre	-705
▁high	-706
▁time	-707
▁systems	-708
allen	-709
▁ri	-710
▁Pro	-711
ount	-712
▁✓	-713
ences	-714
ale	-715
uc	-716
omes	-717
▁question	-718
▁repres	-719
▁method	-720
nowledge	-721
▁significant	-722
ise	-723
med	-724
ange	-725
▁Synthesis	-726
ding	-727
oo	-728
▁val	-729
til	-730
▁cent	-731
▁exp	-732
▁Ph	-733
▁am	-734
wer	-735
▁sug	-736
ann	-737
▁po	-738
vidence	-739
▁expl	-740
▁patterns	-741
▁?	-742
ays	-743
perties	-744
▁produ	-745
ron	-746
iqu	-747
▁if	-748
ious	-749
▁factors	-750
rie	-751
vers	-752
▁oper	-753
ivers	-754
tions	-755
ional	-756
ever	-757
alse	-758
ics	-759
▁multi	-760
▁relations	-761
ains	-762
ych	-763
▁strateg	-764
▁Ne	-765
▁require	-766
ions	-767
ertain	-768
▁what	-769
▁both	-770
titutional	-771
▁supp	-772
▁development	-773
▁User	-774
▁where	-775
"]	-776
":["	-777
reat	-778
▁tradition	-779
iod	-780
gan	-781
▁some	-782
its	-783
uman	-784
▁mak	-785
▁⟨	-786
▁economic	-787
▁ret	-788
▁sur	-789
▁No	-790
▁across	-791
▁※	-792
rit	-793
▁syn	-794
▁typ	-795
▁pop	-796
stand	-797
mer	-798
▁mechanisms	-799
▁op	-800
quires	-801
ily	-802
ree	-803
▁confidence	-804
[{"	-805
▁el	-806
▁Y	-807
▁cultural	-808
divid	-809
erm	-810
▁function	-811
int	-812
ason	-813
▁rather	-814
eg	-815
lear	-816
▁control	-817
▁political	-818
▁En	-819
ide	-820
ilit	-821
▁loc	-822
▁ref	-823
▁prot	-824
▁structure	-825
▁constraints	-826
▁relationship	-827
ize	-828
▁pot	-829
road	-830
ose	-831
▁ver	-832
dividual	-833
own	-834
',	-835
old	-836
▁del	-837
▁respon	-838
▁fund	-839
▁met	-840
true	-841
▁establish	-842
▁ext	-843
▁challen	-844
▁Context	-845
▁Un	-846
▁mon	-847
▁caus	-848
lec	-849
▁*	-850
ues	-851
usion	-852
▁actual	-853
▁es	-854
arch	-855
▁High	-856
les	-857
▁identi	-858
itive	-859
art	-860
iron	-861
als	-862
▁However	-863
ful	-864
▁exper	-865
ogn	-866
▁period	-867
▁historical	-868
lation	-869
▁invol	-870
├─	-871
▁├─	-872
▁just	-873
ource	-874
ram	-875
▁ge	-876
▁dist	-877
ung	-878
▁fe	-879
▁has	-880
swer	-881
▁~	-882
umber	-883
▁distin	-884
▁er	-885
▁imp	-886
ider	-887
ings	-888
utes	-889
▁insight	-890
▁min	-891
▁social	-892
▁conc	-893
▁stand	-894
pecific	-895
▁compar	-896
▁(1	-897
wo	-898
ze	-899
▁av	-900
ople	-901
▁does	-902
▁proble	-903
▁condition	-904
).	-905
ages	-906
arm	-907
ward	-908
elf	-909
▁mo	-910
tis	-911
irst	-912
ogical	-913
ars	-914
20	-915
▁detail	-916
dict	-917
▁prin	-918
▁may	-919
▁sugges	-920
uro	-921
arly	-922
eline	-923
ness	-924
▁during	-925
▁beh	-926
▁mark	-927
▁dom	-928
▁path	-929
▁mat	-930
▁et	-931
▁direct	-932
▁⚠	-933
reak	-934
overn	-935
≈0.	-936
▁understand	-937
▁particular	-938
ren	-939
oph	-940
▁model	-941
▁inclu	-942
properties	-943
▁legal	-944
viron	-945
▁adv	-946
▁bi	-947
▁sec	-948
▁tim	-949
alth	-950
uments	-951
▁position	-952
}},{"	-953
▁depend	-954
▁chang	-955
▁als	-956
ym	-957
cc	-958
ants	-959
▁maintain	-960
ough	-961
▁iss	-962
cept	-963
▁stu	-964
▁7	-965
▁Ge	-966
▁integ	-967
▁into	-968
▁Al	-969
ral	-970
rieval	-971
▁Ex	-972
ps	-973
▁polic	-974
ases	-975
}},"	-976
tation	-977
▁people	-978
▁broad	-979
mentation	-980
▁current	-981
▁unc	-982
▁auth	-983
▁press	-984
▁were	-985
▁fundament	-986
ination	-987
▁requires	-988
▁your	-989
ane	-990
ted	-991
ild	-992
plic	-993
atory	-994
▁evolution	-995
▁law	-996
to	-997
▁assessment	-998
▁contin	-999
}}]	-1000
ether	-1001
▁year	-1002
ute	-1003
iet	-1004
ved	-1005
▁prog	-1006
▁cri	-1007
▁commun	-1008
▁mem	-1009
igious	-1010
▁serv	-1011
▁so	-1012
ins	-1013
▁new	-1014
▁one	-1015
acter	-1016
▁18	-1017
▁prim	-1018
▁individual	-1019
ublic	-1020
▁defin	-1021
▁without	-1022
▁evidence	-1023
▁suc	-1024
▁sch	-1025
emporal	-1026
▁cal	-1027
▁Not	-1028
▁suggests	-1029
▁att	-1030
▁influence	-1031
li	-1032
round	-1033
}}}	-1034
▁inde	-1035
oy	-1036
▁could	-1037
sible	-1038
▁Analysis	-1039
tal	-1040
urn	-1041
ets	-1042
▁power	-1043
ital	-1044
▁i	-1045
wn	-1046
vent	-1047
▁Physical	-1048
▁que	-1049
avior	-1050
ority	-1051
fication	-1052
ax	-1053
▁prec	-1054
false	-1055
az	-1056
ples	-1057
▁ris	-1058
▁consider	-1059
▁Historical	-1060
▁car	-1061
au	-1062
ons	-1063
ystem	-1064
ause	-1065
atical	-1066
▁De	-1067
earch	-1068
▁sol	-1069
),	-1070
▁die	-1071
sing	-1072
▁exist	-1073
af	-1074
▁meas	-1075
▁≈	-1076
▁aff	-1077
ribution	-1078
▁incre	-1079
▁Res	-1080
ression	-1081
for	-1082
▁char	-1083
▁organ	-1084
▁6.	-1085
The	-1086
go	-1087
ands	-1088
▁success	-1089
ilitary	-1090
ury	-1091
be	-1092
ibility	-1093
antic	-1094
▁govern	-1095
▁class	-1096
▁synthesis	-1097
ix	-1098
▁conn	-1099
▁stat	-1100
ris	-1101
tial	-1102
▁Ass	-1103
laim	-1104
iel	-1105
arguments	-1106
▁equ	-1107
▁level	-1108
000	-1109
▁might	-1110
▁ap	-1111
zy	-1112
▁bl	-1113
▁multiple	-1114
time	-1115
ters	-1116
▁environ	-1117
angu	-1118
▁within	-1119
▁modern	-1120
▁cost	-1121
8⟩	-1122
ources	-1123
▁specif	-1124
▁gra	-1125
▁mov	-1126
▁intern	-1127
ex	-1128
▁redu	-1129
▁did	-1130
rative	-1131
≈0.8⟩	-1132
acy	-1133
▁conditions	-1134
rast	-1135
▁changes	-1136
serv	-1137
▁set	-1138
iter	-1139
ocus	-1140
▁Cl	-1141
▁had	-1142
▁check	-1143
▁real	-1144
ensive	-1145
▁broader	-1146
▁8	-1147
ynam	-1148
▁bas	-1149
ories	-1150
▁righ	-1151
?"	-1152
▁standard	-1153
▁long	-1154
▁Im	-1155
▁person	-1156
athem	-1157
▁information	-1158
▁los	-1159
read	-1160
ergy	-1161
▁grou	-1162
▁them	-1163
▁Trans	-1164
▁research	-1165
▁Core	-1166
ries	-1167
ructure	-1168
ocu	-1169
tional	-1170
ape	-1171
uration	-1172
ared	-1173
▁because	-1174
ade	-1175
▁corre	-1176
▁Ar	-1177
▁actually	-1178
▁state	-1179
ffici	-1180
▁retrieval	-1181
▁der	-1182
▁u	-1183
gl	-1184
atural	-1185
▁claim	-1186
▁mean	-1187
▁outc	-1188
ke	-1189
▁shif	-1190
▁behavior	-1191
▁sm	-1192
mental	-1193
▁≠	-1194
ines	-1195
▁access	-1196
▁who	-1197
▁most	-1198
▁prof	-1199
▁applic	-1200
ols	-1201
▁Geographic	-1202
▁also	-1203
minist	-1204
▁adap	-1205
ah	-1206
▁complexity	-1207
▁represent	-1208
▁knowledge	-1209
▁my	-1210
ft	-1211
com	-1212
▁bu	-1213
way	-1214
▁each	-1215
▁first	-1216
cial	-1217
eng	-1218
▁ed	-1219
jor	-1220
▁same	-1221
▁lead	-1222
▁gener	-1223
olic	-1224
aries	-1225
Wh	-1226
▁tri	-1227
▁Information	-1228
ón	-1229
▁occ	-1230
▁add	-1231
▁policy	-1232
▁Ad	-1233
▁gu	-1234
▁use	-1235
not	-1236
▁particularly	-1237
atis	-1238
gen	-1239
▁sym	-1240
▁problem	-1241
red	-1242
▁grow	-1243
ects	-1244
medi	-1245
app	-1246
▁needed	-1247
▁found	-1248
▁appe	-1249
emantic	-1250
."},"	-1251
▁tem	-1252
▁reason	-1253
irc	-1254
."}},"	-1255
▁Specific	-1256
▁experi	-1257
▁up	-1258
▁interpre	-1259
ruction	-1260
▁theory	-1261
▁years	-1262
▁fam	-1263
▁Ec	-1264
▁special	-1265
▁assum	-1266
▁show	-1267
ient	-1268
ances	-1269
ems	-1270
▁name	-1271
▁design	-1272
air	-1273
▁hel	-1274
▁religious	-1275
▁inst	-1276
▁count	-1277
oid	-1278
che	-1279
sych	-1280
▁effects	-1281
▁established	-1282
▁typically	-1283
▁What	-1284
ecess	-1285
▁provide	-1286
wh	-1287
▁change	-1288
▁fac	-1289
ique	-1290
▁non	-1291
▁post	-1292
ox	-1293
▁gap	-1294
diction	-1295
omen	-1296
▁war	-1297
▁Tim	-1298
▁Ver	-1299
ission	-1300
very	-1301
▁arch	-1302
her	-1303
ran	-1304
agn	-1305
ode	-1306
▁fundamental	-1307
▁perform	-1308
▁character	-1309
rid	-1310
urope	-1311
ae	-1312
ension	-1313
▁aut	-1314
ving	-1315
bers	-1316
get	-1317
▁Assessment	-1318
tice	-1319
▁fol	-1320
meric	-1321
uture	-1322
ements	-1323
io	-1324
ning	-1325
▁approaches	-1326
▁support	-1327
▁und	-1328
▁indu	-1329
aw	-1330
ertainty	-1331
▁though	-1332
▁gl	-1333
▁comb	-1334
▁human	-1335
ake	-1336
▁creates	-1337
▁key	-1338
▁health	-1339
▁response	-1340
▁Const	-1341
▁mus	-1342
▁disc	-1343
ink	-1344
▁optim	-1345
tivity	-1346
Con	-1347
ock	-1348
agement	-1349
▁pressure	-1350
▁even	-1351
▁focus	-1352
▁impact	-1353
anguage	-1354
▁effecti	-1355
}}},{"	-1356
aterial	-1357
▁methods	-1358
▁ent	-1359
vely	-1360
▁only	-1361
ormal	-1362
▁recogn	-1363
▁orig	-1364
▁military	-1365
▁being	-1366
▁end	-1367
athematical	-1368
position	-1369
▁Economic	-1370
▁decision	-1371
▁effici	-1372
set	-1373
▁Sh	-1374
▁traditional	-1375
action	-1376
orld	-1377
ner	-1378
▁continu	-1379
▁import	-1380
ype	-1381
▁down	-1382
term	-1383
▁opp	-1384
ick	-1385
ense	-1386
arri	-1387
▁net	-1388
▁rest	-1389
▁Ac	-1390
▁see	-1391
▁ser	-1392
lo	-1393
▁population	-1394
ference	-1395
▁studi	-1396
▁les	-1397
▁Need	-1398
▁Reg	-1399
ison	-1400
▁distinction	-1401
lect	-1402
no	-1403
els	-1404
▁Multi	-1405
ij	-1406
In	-1407
▁af	-1408
▁enti	-1409
▁initi	-1410
ental	-1411
▁spe	-1412
▁often	-1413
till	-1414
▁div	-1415
ways	-1416
▁Mod	-1417
50	-1418
▁Pre	-1419
ield	-1420
▁necess	-1421
▁fin	-1422
etic	-1423
rial	-1424
▁sever	-1425
▁sci	-1426
▁don	-1427
▁docu	-1428
▁×	-1429
veness	-1430
ately	-1431
▁He	-1432
▁including	-1433
ium	-1434
▁calc	-1435
iven	-1436
▁there	-1437
▁care	-1438
▁represents	-1439
itu	-1440
pri	-1441
ices	-1442
▁Z	-1443
▁Se	-1444
urb	-1445
rag	-1446
tle	-1447
▁ess	-1448
▁Americ	-1449
▁While	-1450
yc	-1451
▁Dec	-1452
▁such	-1453
mented	-1454
▁potential	-1455
ody	-1456
▁fil	-1457
▁Europe	-1458
ope	-1459
▁integration	-1460
▁her	-1461
▁vol	-1462
▁part	-1463
▁been	-1464
▁vi	-1465
▁Med	-1466
entially	-1467
▁compe	-1468
fore	-1469
ditional	-1470
▁understanding	-1471
▁cell	-1472
▁risk	-1473
clusion	-1474
▁treat	-1475
▁know	-1476
▁practical	-1477
▁text	-1478
atch	-1479
▁bene	-1480
ception	-1481
line	-1482
▁elect	-1483
▁institutional	-1484
▁water	-1485
▁fail	-1486
▁again	-1487
▁outcomes	-1488
urs	-1489
▁proper	-1490
fficient	-1491
▁Limit	-1492
▁limited	-1493
▁own	-1494
▁natural	-1495
▁will	-1496
▁imple	-1497
▁date	-1498
▁9	-1499
ermin	-1500
▁better	-1501
▁For	-1502
▁measure	-1503
lection	-1504
tification	-1505
▁identif	-1506
iew	-1507
oretical	-1508
▁num	-1509
ug	-1510
ione	-1511
▁early	-1512
xim	-1513
):	-1514
▁major	-1515
-19	-1516
ife	-1517
abil	-1518
▁Pol	-1519
▁public	-1520
any	-1521
uss	-1522
▁user	-1523
▁log	-1524
▁transition	-1525
ulations	-1526
▁Why	-1527
istance	-1528
▁circ	-1529
rastructure	-1530
▁lo	-1531
▁exact	-1532
▁due	-1533
▁dynam	-1534
abor	-1535
ulatory	-1536
▁divers	-1537
Key	-1538
arget	-1539
▁avail	-1540
▁contra	-1541
istent	-1542
ingle	-1543
▁administ	-1544
▁follow	-1545
▁observ	-1546
▁exam	-1547
▁Is	-1548
▁two	-1549
cip	-1550
▁capac	-1551
ords	-1552
▁remain	-1553
▁dri	-1554
▁required	-1555
▁energy	-1556
▁allow	-1557
▁inv	-1558
ilos	-1559
▁vers	-1560
▁limitations	-1561
iffer	-1562
▁make	-1563
▁eng	-1564
pendent	-1565
▁terms	-1566
cent	-1567
▁dev	-1568
sc	-1569
▁break	-1570
▁back	-1571
ilosoph	-1572
▁vo	-1573
arily	-1574
▁202	-1575
▁should	-1576
outh	-1577
▁Cultural	-1578
mun	-1579
▁bound	-1580
▁authority	-1581
▁specifically	-1582
▁advant	-1583
▁why	-1584
omain	-1585
que	-1586
oral	-1587
▁address	-1588
▁challenges	-1589
▁remains	-1590
based	-1591
▁material	-1592
▁sk	-1593
▁any	-1594
perature	-1595
▁general	-1596
▁production	-1597
▁Em	-1598
ilar	-1599
▁network	-1600
ritical	-1601
▁10	-1602
▁demon	-1603
▁0.	-1604
"]}},{"	-1605
ploy	-1606
▁bey	-1607
orth	-1608
▁201	-1609
▁beyond	-1610
ok	-1611
▁create	-1612
▁che	-1613
▁psych	-1614
30	-1615
object	-1616
emporary	-1617
number	-1618
arge	-1619
▁domin	-1620
▁issue	-1621
▁impro	-1622
▁fre	-1623
tics	-1624
iness	-1625
▁Leg	-1626
sh	-1627
▁rates	-1628
▁Sp	-1629
ave	-1630
▁separ	-1631
ival	-1632
▁La	-1633
vention	-1634
ook	-1635
▁studies	-1636
▁detailed	-1637
▁abs	-1638
ansion	-1639
▁answer	-1640
ciples	-1641
ering	-1642
▁total	-1643
▁needs	-1644
gg	-1645
▁When	-1646
▁go	-1647
▁il	-1648
ength	-1649
▁requirements	-1650
▁emerg	-1651
ederal	-1652
amp	-1653
▁Logical	-1654
▁simple	-1655
▁vis	-1656
ule	-1657
ables	-1658
▁entire	-1659
inical	-1660
istory	-1661
▁These	-1662
ura	-1663
▁fl	-1664
▁growth	-1665
ership	-1666
▁still	-1667
▁Mechanism	-1668
▁status	-1669
▁less	-1670
den	-1671
▁case	-1672
tices	-1673
▁Verification	-1674
▁liter	-1675
▁many	-1676
▁constraint	-1677
▁stud	-1678
ull	-1679
▁Translation	-1680
▁principles	-1681
▁get	-1682
▁bel	-1683
▁Le	-1684
▁uns	-1685
▁Constrain	-1686
phas	-1687
ication	-1688
ified	-1689
put	-1690
▁confir	-1691
uch	-1692
▁against	-1693
▁clear	-1694
▁distribution	-1695
ined	-1696
▁van	-1697
▁cho	-1698
ponse	-1699
▁performance	-1700
ining	-1701
▁Tra	-1702
▁query	-1703
▁una	-1704
▁princip	-1705
mediate	-1706
▁century	-1707
ator	-1708
▁si	-1709
▁market	-1710
▁impos	-1711
▁US	-1712
▁well	-1713
▁adop	-1714
ión	-1715
plications	-1716
▁call	-1717
▁educ	-1718
▁concern	-1719
▁$	-1720
▁processes	-1721
▁Comple	-1722
ections	-1723
▁pla	-1724
hold	-1725
▁later	-1726
▁small	-1727
▁sources	-1728
▁(19	-1729
▁expansion	-1730
▁after	-1731
▁->	-1732
less	-1733
▁local	-1734
onial	-1735
omm	-1736
▁physical	-1737
▁Framework	-1738
lam	-1739
▁Chin	-1740
▁nature	-1741
ask	-1742
▁cour	-1743
▁future	-1744
aly	-1745
chie	-1746
aneous	-1747
man	-1748
▁territ	-1749
eration	-1750
▁primary	-1751
ected	-1752
▁strategic	-1753
▁Str	-1754
▁flow	-1755
▁elements	-1756
▁becomes	-1757
▁trade	-1758
▁&	-1759
▁compon	-1760
asc	-1761
▁challenge	-1762
▁NB	-1763
▁structures	-1764
└─	-1765
▁└─	-1766
emic	-1767
▁differences	-1768
▁benef	-1769
▁efficiency	-1770
▁super	-1771
urity	-1772
za	-1773
▁type	-1774
▁details	-1775
▁Cons	-1776
ait	-1777
▁structural	-1778
ats	-1779
ales	-1780
oh	-1781
itect	-1782
▁before	-1783
▁memory	-1784
▁men	-1785
▁help	-1786
▁preserv	-1787
isting	-1788
▁determin	-1789
pir	-1790
▁nar	-1791
fact	-1792
ify	-1793
enum	-1794
land	-1795
▁tr	-1796
aking	-1797
▁shift	-1798
ety	-1799
▁200	-1800
▁medical	-1801
iques	-1802
ror	-1803
▁ide	-1804
▁reflec	-1805
60	-1806
▁tax	-1807
▁concept	-1808
▁common	-1809
urch	-1810
▁mass	-1811
▁univers	-1812
▁language	-1813
▁used	-1814
human	-1815
osition	-1816
▁cannot	-1817
▁issues	-1818
sequ	-1819
▁line	-1820
anced	-1821
▁Techn	-1822
▁significantly	-1823
▁bal	-1824
▁number	-1825
▁rights	-1826
racy	-1827
▁theoretical	-1828
▁international	-1829
▁based	-1830
ifferent	-1831
▁achie	-1832
olution	-1833
▁capacity	-1834
omposition	-1835
reen	-1836
▁Constraints	-1837
▁must	-1838
obal	-1839
▁philosoph	-1840
ray	-1841
▁play	-1842
ante	-1843
▁coord	-1844
rop	-1845
▁higher	-1846
▁strategy	-1847
▁relationships	-1848
chen	-1849
ling	-1850
▁mechan	-1851
▁possible	-1852
▁So	-1853
▁coun	-1854
▁Sim	-1855
▁infrastructure	-1856
▁off	-1857
ists	-1858
▁cases	-1859
strial	-1860
lex	-1861
ume	-1862
ptional	-1863
▁pass	-1864
ream	-1865
ert	-1866
mission	-1867
▁rela	-1868
▁child	-1869
▁become	-1870
▁frameworks	-1871
▁categ	-1872
▁effectiveness	-1873
▁If	-1874
▁depends	-1875
▁states	-1876
▁Can	-1877
,000	-1878
ective	-1879
▁involves	-1880
lean	-1881
▁history	-1882
-2	-1883
▁present	-1884
▁mathematical	-1885
▁verification	-1886
▁single	-1887
▁dynamics	-1888
▁doesn	-1889
▁similar	-1890
▁practices	-1891
▁valid	-1892
▁value	-1893
▁meaning	-1894
▁cult	-1895
▁Both	-1896
▁hy	-1897
▁semantic	-1898
duc	-1899
▁hand	-1900
ternal	-1901
xts	-1902
izing	-1903
▁demonstr	-1904
ests	-1905
▁Parsing	-1906
80	-1907
po	-1908
essage	-1909
▁role	-1910
oci	-1911
pts	-1912
▁comparative	-1913
``	-1914
ivil	-1915
omet	-1916
▁management	-1917
▁sens	-1918
ends	-1919
▁practice	-1920
▁conflic	-1921
thers	-1922
▁come	-1923
▁making	-1924
usiness	-1925
▁Response	-1926
nov	-1927
▁species	-1928
essional	-1929
day	-1930
ender	-1931
▁groups	-1932
▁read	-1933
system	-1934
oms	-1935
▁Legal	-1936
reh	-1937
anti	-1938
part	-1939
10	-1940
St	-1941
▁é	-1942
ones	-1943
▁phys	-1944
▁competi	-1945
▁indic	-1946
▁fig	-1947
knowledge	-1948
urban	-1949
▁Modern	-1950
▁levels	-1951
force	-1952
▁experience	-1953
▁stated	-1954
ów	-1955
▁second	-1956
yl	-1957
ultaneous	-1958
cz	-1959
itual	-1960
▁comparison	-1961
ixed	-1962
date	-1963
▁Af	-1964
aj	-1965
▁scope	-1966
▁then	-1967
ratic	-1968
▁proced	-1969
cal	-1970
▁technical	-1971
▁happ	-1972
▁prob	-1973
ike	-1974
elle	-1975
pite	-1976
▁temporal	-1977
▁whether	-1978
off	-1979
ternative	-1980
▁treatment	-1981
▁Or	-1982
▁given	-1983
▁European	-1984
cont	-1985
▁As	-1986
▁life	-1987
ien	-1988
▁government	-1989
▁compreh	-1990
ince	-1991
▁Evidence	-1992
pect	-1993
▁rate	-1994
▁Critical	-1995
mon	-1996
imal	-1997
▁works	-1998
'.","	-1999
▁complete	-2000
▁situ	-2001
ually	-2002
ults	-2003
mit	-2004
An	-2005
uris	-2006
▁poss	-2007
ules	-2008
▁reasoning	-2009
▁descri	-2010
▁uncertainty	-2011
ited	-2012
lying	-2013
▁Domain	-2014
onomy	-2015
▁emphas	-2016
▁Cont	-2017
▁those	-2018
▁0	-2019
▁American	-2020
▁We	-2021
▁reflects	-2022
▁Germ	-2023
▁various	-2024
pid	-2025
onal	-2026
▁unsure	-2027
itor	-2028
▁specialized	-2029
alle	-2030
▁subst	-2031
bed	-2032
▁critical	-2033
▁means	-2034
▁Temporal	-2035
▁distinct	-2036
▁las	-2037
enari	-2038
▁available	-2039
▁viol	-2040
▁It	-2041
place	-2042
lev	-2043
reg	-2044
▁buil	-2045
oman	-2046
▁contrib	-2047
lich	-2048
rench	-2049
▁Direct	-2050
▁using	-2051
▁important	-2052
ili	-2053
▁ev	-2054
ring	-2055
▁☑	-2056
▁cru	-2057
▁world	-2058
Final	-2059
ancial	-2060
▁processing	-2061
down	-2062
▁indeed	-2063
▁family	-2064
▁point	-2065
inary	-2066
▁around	-2067
ocation	-2068
▁dam	-2069
▁evol	-2070
entific	-2071
urg	-2072
▁amb	-2073
▁size	-2074
▁types	-2075
▁operations	-2076
ash	-2077
▁costs	-2078
▁toward	-2079
▁consum	-2080
▁>	-2081
ek	-2082
ints	-2083
▁stuff	-2084
irection	-2085
ognitive	-2086
estern	-2087
atter	-2088
tig	-2089
erate	-2090
ict	-2091
▁transformation	-2092
▁space	-2093
70	-2094
▁larg	-2095
▁Current	-2096
▁Decomposition	-2097
▁created	-2098
▁became	-2099
▁interpretation	-2100
ficial	-2101
▁regard	-2102
▁sust	-2103
▁saf	-2104
valu	-2105
▁maintaining	-2106
▁precision	-2107
▁directly	-2108
▁protection	-2109
▁personal	-2110
▁Rel	-2111
1.	-2112
▁deb	-2113
des	-2114
▁Cross	-2115
▁creating	-2116
of	-2117
▁systematic	-2118
"}}]	-2119
▁field	-2120
▁Final	-2121
erc	-2122
verage	-2123
ses	-2124
▁normal	-2125
▁Engl	-2126
▁target	-2127
gress	-2128
▁comprehensive	-2129
▁administrative	-2130
▁Different	-2131
▁itself	-2132
▁align	-2133
▁Ins	-2134
▁coll	-2135
▁timing	-2136
▁applications	-2137
agnos	-2138
ractical	-2139
actions	-2140
▁Break	-2141
▁Compar	-2142
▁Timeline	-2143
▁body	-2144
gor	-2145
▁lear	-2146
▁sequ	-2147
▁surv	-2148
▁provides	-2149
▁potentially	-2150
▁Partial	-2151
▁som	-2152
ght	-2153
istics	-2154
▁architect	-2155
▁Each	-2156
▁difference	-2157
▁ear	-2158
▁every	-2159
▁simultaneous	-2160
▁recognition	-2161
ird	-2162
inc	-2163
▁produc	-2164
ton	-2165
play	-2166
▁others	-2167
▁group	-2168
▁ther	-2169
▁claims	-2170
▁Be	-2171
▁Rec	-2172
▁Answer	-2173
▁sustain	-2174
ardi	-2175
▁find	-2176
ident	-2177
▁commer	-2178
ready	-2179
▁implications	-2180
▁environmental	-2181
other	-2182
▁[	-2183
▁15	-2184
▁event	-2185
▁false	-2186
▁problems	-2187
▁du	-2188
▁Sc	-2189
▁area	-2190
▁despite	-2191
▁region	-2192
unt	-2193
ool	-2194
▁symb	-2195
eter	-2196
tian	-2197
▁city	-2198
▁priv	-2199
▁na	-2200
ething	-2201
ma	-2202
rand	-2203
▁national	-2204
nie	-2205
mo	-2206
▁implementation	-2207
▁anti	-2208
ste	-2209
▁pati	-2210
Ph	-2211
NA	-2212
▁Complex	-2213
ptions	-2214
▁urban	-2215
gu	-2216
ging	-2217
▁Strateg	-2218
▁termin	-2219
▁concent	-2220
itim	-2221
▁explain	-2222
▁functions	-2223
▁frequ	-2224
▁mis	-2225
vement	-2226
esting	-2227
minutes	-2228
▁cy	-2229
▁7.	-2230
orn	-2231
▁media	-2232
▁unclear	-2233
▁New	-2234
ai	-2235
▁identity	-2236
és	-2237
▁strategies	-2238
▁17	-2239
igital	-2240
▁diffic	-2241
stry	-2242
▁innov	-2243
▁food	-2244
issing	-2245
aces	-2246
▁formation	-2247
▁inher	-2248
▁soc	-2249
met	-2250
reshold	-2251
▁content	-2252
▁dim	-2253
▁causal	-2254
▁à	-2255
face	-2256
▁regional	-2257
angulation	-2258
▁good	-2259
▁pi	-2260
▁low	-2261
▁doct	-2262
▁regulatory	-2263
▁factor	-2264
amente	-2265
▁Gen	-2266
imate	-2267
90	-2268
hib	-2269
▁tension	-2270
▁original	-2271
▁regions	-2272
▁mar	-2273
▁eth	-2274
ensity	-2275
amb	-2276
▁bre	-2277
▁preced	-2278
light	-2279
▁War	-2280
ended	-2281
▁assumes	-2282
▁right	-2283
overy	-2284
▁organiz	-2285
▁strong	-2286
anning	-2287
ours	-2288
leg	-2289
▁central	-2290
▁areas	-2291
▁mill	-2292
▁quality	-2293
specific	-2294
▁Pri	-2295
ract	-2296
▁duration	-2297
▁constitutional	-2298
list	-2299
▁him	-2300
ches	-2301
annot	-2302
▁Political	-2303
40	-2304
▁exists	-2305
▁business	-2306
▁countries	-2307
ato	-2308
▁properties	-2309
▁temperature	-2310
ademic	-2311
▁vary	-2312
▁already	-2313
-0	-2314
▁Social	-2315
▁obj	-2316
▁nav	-2317
urpos	-2318
aling	-2319
▁certain	-2320
▁fore	-2321
▁movement	-2322
na	-2323
use	-2324
▁activ	-2325
▁our	-2326
▁dise	-2327
▁something	-2328
▁minutes	-2329
▁metric	-2330
aging	-2331
ación	-2332
▁land	-2333
▁components	-2334
sp	-2335
▁statis	-2336
inking	-2337
ritis	-2338
▁timeline	-2339
▁Two	-2340
▁son	-2341
verg	-2342
▁record	-2343
▁solution	-2344
enced	-2345
▁several	-2346
ierarch	-2347
▁juris	-2348
▁adoption	-2349
▁numbers	-2350
▁Some	-2351
▁Limited	-2352
abilities	-2353
▁connection	-2354
ades	-2355
ck	-2356
aps	-2357
▁frag	-2358
back	-2359
▁base	-2360
▁pathways	-2361
▁principle	-2362
▁Contextual	-2363
▁Per	-2364
▁existing	-2365
▁X	-2366
▁resistance	-2367
raw	-2368
▁expos	-2369
▁genetic	-2370
▁Class	-2371
▁explan	-2372
▁nam	-2373
igu	-2374
▁source	-2375
▁much	-2376
ref	-2377
▁made	-2378
▁federal	-2379
abled	-2380
▁adaptation	-2381
ta	-2382
ently	-2383
▁correct	-2384
▁community	-2385
econd	-2386
ators	-2387
war	-2388
ived	-2389
ingu	-2390
omatic	-2391
▁formal	-2392
orts	-2393
▁variation	-2394
▁spir	-2395
▁appears	-2396
▁conte	-2397
▁populations	-2398
cape	-2399
▁entirely	-2400
uted	-2401
▁reli	-2402
▁Multiple	-2403
▁grad	-2404
▁models	-2405
tings	-2406
▁rev	-2407
uracy	-2408
▁!	-2409
▁Pl	-2410
▁predic	-2411
▁death	-2412
▁disru	-2413
▁protoc	-2414
▁Dem	-2415
▁particip	-2416
ocratic	-2417
▁Cannot	-2418
▁effect	-2419
▁Stand	-2420
▁study	-2421
▁cross	-2422
Optional	-2423
ica	-2424
cient	-2425
ole	-2426
▁self	-2427
▁compared	-2428
mary	-2429
iety	-2430
▁crucial	-2431
Ch	-2432
tine	-2433
▁techniques	-2434
▁list	-2435
orial	-2436
▁den	-2437
▁Pers	-2438
▁occur	-2439
▁arti	-2440
▁reality	-2441
otal	-2442
▁consistent	-2443
▁jus	-2444
ll	-2445
15	-2446
▁device	-2447
boo	-2448
▁application	-2449
▁dep	-2450
▁French	-2451
▁scenari	-2452
▁His	-2453
by	-2454
inter	-2455
▁contexts	-2456
▁belie	-2457
▁Col	-2458
▁three	-2459
level	-2460
ank	-2461
ew	-2462
▁Am	-2463
▁era	-2464
frame	-2465
▁enc	-2466
ouse	-2467
▁parad	-2468
▁State	-2469
▁Comparative	-2470
▁Low	-2471
ero	-2472
▁South	-2473
sk	-2474
▁hab	-2475
▁global	-2476
▁At	-2477
▁definition	-2478
vity	-2479
iving	-2480
ufficient	-2481
plete	-2482
▁order	-2483
▁contact	-2484
▁employ	-2485
ush	-2486
▁barri	-2487
▁Ret	-2488
▁Yes	-2489
otential	-2490
▁stability	-2491
▁brain	-2492
ids	-2493
▁clinical	-2494
▁transform	-2495
▁bias	-2496
▁threshold	-2497
▁legitim	-2498
▁activity	-2499
▁range	-2500
▁prem	-2501
▁true	-2502
▁location	-2503
▁logic	-2504
raction	-2505
▁action	-2506
era	-2507
▁primarily	-2508
▁une	-2509
▁women	-2510
▁isn	-2511
▁balance	-2512
▁deg	-2513
▁Au	-2514
ites	-2515
▁documented	-2516
▁tru	-2517
source	-2518
ritish	-2519
▁parsing	-2520
▁makes	-2521
iological	-2522
▁hyp	-2523
▁Tri	-2524
pping	-2525
▁neg	-2526
ulner	-2527
▁System	-2528
▁schol	-2529
pective	-2530
▁air	-2531
▁Western	-2532
▁phen	-2533
ights	-2534
▁precise	-2535
▁confusion	-2536
▁security	-2537
ded	-2538
enn	-2539
ada	-2540
▁mom	-2541
ji	-2542
▁program	-2543
▁loss	-2544
▁Post	-2545
itation	-2546
▁lib	-2547
▁age	-2548
do	-2549
otional	-2550
pass	-2551
-20	-2552
▁limitation	-2553
pecial	-2554
acts	-2555
dependent	-2556
▁considerations	-2557
kt	-2558
▁radi	-2559
II	-2560
ening	-2561
▁core	-2562
▁industrial	-2563
▁gaps	-2564
▁return	-2565
aving	-2566
▁diagnos	-2567
▁variations	-2568
▁16	-2569
▁professional	-2570
ides	-2571
▁Afric	-2572
▁invest	-2573
▁breakdown	-2574
ycle	-2575
▁traditions	-2576
boolean	-2577
▁foundation	-2578
▁12	-2579
tives	-2580
apping	-2581
ector	-2582
cre	-2583
apan	-2584
▁sam	-2585
▁proj	-2586
▁transmission	-2587
items	-2588
▁networks	-2589
▁points	-2590
▁transfer	-2591
ography	-2592
▁essential	-2593
ał	-2594
▁lay	-2595
ensions	-2596
▁classification	-2597
}}}]	-2598
volutionary	-2599
▁ke	-2600
order	-2601
antit	-2602
rams	-2603
▁boundaries	-2604
▁With	-2605
▁scientific	-2606
izes	-2607
▁Conf	-2608
▁Indi	-2609
▁pure	-2610
▁commercial	-2611
▁Practical	-2612
▁Mar	-2613
":[]	-2614
▁Inter	-2615
▁effective	-2616
▁evalu	-2617
forcement	-2618
▁term	-2619
▁Requires	-2620
▁hierarch	-2621
▁operational	-2622
▁accur	-2623
▁initial	-2624
▁impossible	-2625
udic	-2626
▁financial	-2627
▁domains	-2628
dh	-2629
▁affect	-2630
▁pathway	-2631
▁chem	-2632
▁light	-2633
dro	-2634
▁standards	-2635
▁evolutionary	-2636
▁reform	-2637
▁English	-2638
▁culture	-2639
▁restric	-2640
▁confirm	-2641
▁incom	-2642
▁working	-2643
▁lands	-2644
▁advantage	-2645
▁transport	-2646
nych	-2647
▁por	-2648
▁cause	-2649
▁property	-2650
▁safety	-2651
▁civil	-2652
▁traject	-2653
asing	-2654
▁conserv	-2655
▁cognitive	-2656
igen	-2657
▁camp	-2658
rel	-2659
arian	-2660
▁forces	-2661
ecting	-2662
▁rapid	-2663
▁colonial	-2664
▁integr	-2665
▁place	-2666
▁environment	-2667
ius	-2668
right	-2669
att	-2670
▁dé	-2671
▁prior	-2672
▁harm	-2673
pers	-2674
fect	-2675
icro	-2676
▁prote	-2677
'.	-2678
▁ve	-2679
rum	-2680
▁☐	-2681
▁util	-2682
▁App	-2683
▁short	-2684
the	-2685
▁service	-2686
▁accept	-2687
igration	-2688
▁vulner	-2689
▁accuracy	-2690
eding	-2691
integ	-2692
oint	-2693
▁Sch	-2694
▁simultaneously	-2695
knowled	-2696
▁way	-2697
▁definitive	-2698
pol	-2699
▁arr	-2700
▁bo	-2701
▁lack	-2702
hr	-2703
ger	-2704
▁view	-2705
▁Most	-2706
▁strength	-2707
acc	-2708
▁known	-2709
▁labor	-2710
▁wr	-2711
iver	-2712
▁fav	-2713
cious	-2714
▁step	-2715
▁ine	-2716
inf	-2717
sibility	-2718
antitative	-2719
▁measurement	-2720
dis	-2721
ortun	-2722
▁British	-2723
▁institution	-2724
▁molec	-2725
▁~1	-2726
▁successful	-2727
▁Mon	-2728
▁sum	-2729
rab	-2730
▁failure	-2731
omestic	-2732
ending	-2733
▁advantages	-2734
▁training	-2735
ives	-2736
"]}}]	-2737
▁purpos	-2738
▁old	-2739
▁prev	-2740
▁mob	-2741
▁prefer	-2742
osph	-2743
';	-2744
▁disease	-2745
▁preservation	-2746
ula	-2747
▁basic	-2748
▁education	-2749
▁reduced	-2750
atives	-2751
gment	-2752
ści	-2753
▁test	-2754
ando	-2755
▁pu	-2756
▁Mapping	-2757
▁optimization	-2758
45	-2759
▁provided	-2760
▁unique	-2761
▁experim	-2762
▁thing	-2763
aster	-2764
▁guid	-2765
▁wind	-2766
▁message	-2767
▁een	-2768
▁isol	-2769
▁results	-2770
quest	-2771
▁capt	-2772
▁lower	-2773
▁von	-2774
▁ann	-2775
▁cur	-2776
▁exactly	-2777
venue	-2778
▁elim	-2779
lier	-2780
▁sympt	-2781
▁construction	-2782
▁phot	-2783
▁analy	-2784
atures	-2785
▁Est	-2786
▁vir	-2787
▁asking	-2788
▁planning	-2789
▁speed	-2790
astic	-2791
▁independent	-2792
ote	-2793
rine	-2794
▁capital	-2795
isk	-2796
cles	-2797
▁ability	-2798
▁Potential	-2799
itiz	-2800
▁German	-2801
▁reach	-2802
abel	-2803
Set	-2804
cer	-2805
▁extre	-2806
▁varies	-2807
▁Check	-2808
▁More	-2809
▁contemporary	-2810
":{	-2811
▁lingu	-2812
▁They	-2813
ret	-2814
ía	-2815
▁conce	-2816
▁conflict	-2817
leep	-2818
▁large	-2819
▁benefits	-2820
pr	-2821
mente	-2822
▁tool	-2823
Answer	-2824
olid	-2825
▁estim	-2826
▁persist	-2827
rying	-2828
och	-2829
riter	-2830
▁Standard	-2831
▁individuals	-2832
rad	-2833
▁Bud	-2834
▁blood	-2835
▁damage	-2836
▁flex	-2837
▁prov	-2838
▁demand	-2839
ths	-2840
Conclusion	-2841
▁Su	-2842
je	-2843
quiring	-2844
tination	-2845
▁refer	-2846
pendence	-2847
▁het	-2848
▁pressures	-2849
▁values	-2850
▁resources	-2851
▁metrics	-2852
▁terminology	-2853
oss	-2854
▁calculation	-2855
▁stress	-2856
▁generally	-2857
▁legis	-2858
ither	-2859
▁protocols	-2860
ember	-2861
▁direction	-2862
ably	-2863
atom	-2864
▁full	-2865
▁geomet	-2866
▁avoid	-2867
▁building	-2868
▁internal	-2869
▁things	-2870
▁adapt	-2871
▁reduction	-2872
Physical	-2873
tention	-2874
omb	-2875
▁navig	-2876
▁Breaking	-2877
▁result	-2878
▁agric	-2879
itial	-2880
▁expression	-2881
▁pow	-2882
▁Japan	-2883
▁circum	-2884
ony	-2885
▁mor	-2886
▁commit	-2887
men	-2888
▁threat	-2889
▁comput	-2890
▁communication	-2891
tively	-2892
ports	-2893
▁Acknowledge	-2894
▁team	-2895
▁act	-2896
trans	-2897
▁engine	-2898
dom	-2899
▁now	-2900
▁Simple	-2901
▁tre	-2902
▁final	-2903
▁periods	-2904
▁learning	-2905
▁pen	-2906
▁choice	-2907
▁phenomen	-2908
fin	-2909
sub	-2910
▁Dis	-2911
▁diss	-2912
▁characteristics	-2913
start	-2914
▁moral	-2915
ilities	-2916
▁complic	-2917
▁governance	-2918
▁fundamentally	-2919
tif	-2920
▁cells	-2921
▁Technical	-2922
▁scale	-2923
▁developed	-2924
▁requiring	-2925
▁events	-2926
▁od	-2927
▁Chinese	-2928
▁rece	-2929
▁red	-2930
▁intervention	-2931
▁100	-2932
ano	-2933
▁industry	-2934
▁El	-2935
▁substan	-2936
▁Individual	-2937
etter	-2938
▁Av	-2939
▁appropri	-2940
▁Red	-2941
▁Traditional	-2942
year	-2943
ikely	-2944
▁associ	-2945
ommend	-2946
▁flu	-2947
▁increase	-2948
▁psychological	-2949
ür	-2950
12	-2951
▁exposure	-2952
▁decisions	-2953
ette	-2954
duction	-2955
▁explanation	-2956
▁Russ	-2957
▁appear	-2958
making	-2959
anish	-2960
▁technology	-2961
▁policies	-2962
▁Te	-2963
▁subs	-2964
▁Time	-2965
ieval	-2966
▁demographic	-2967
istency	-2968
▁impl	-2969
▁enh	-2970
gest	-2971
▁acknowled	-2972
▁therm	-2973
▁attem	-2974
▁separate	-2975
":"'	-2976
▁active	-2977
▁stra	-2978
▁reflect	-2979
utri	-2980
▁plan	-2981
▁positioning	-2982
ened	-2983
▁Ab	-2984
▁Cor	-2985
▁Die	-2986
▁dual	-2987
ana	-2988
▁ens	-2989
vergence	-2990
▁pain	-2991
▁Strategic	-2992
ardiz	-2993
▁May	-2994
▁color	-2995
▁Islam	-2996
▁się	-2997
▁Cour	-2998
▁email	-2999
▁ce	-3000
▁hear	-3001
duct	-3002
ischen	-3003
verse	-3004
▁Knowledge	-3005
▁causation	-3006
▁sus	-3007
że	-3008
▁predict	-3009
▁selection	-3010
entic	-3011
▁underlying	-3012
.,	-3013
▁times	-3014
▁spiritual	-3015
ristian	-3016
▁sound	-3017
▁zu	-3018
▁sw	-3019
ceed	-3020
▁insufficient	-3021
▁Semantic	-3022
▁error	-3023
eting	-3024
▁tog	-3025
▁mach	-3026
▁presence	-3027
▁serve	-3028
▁dat	-3029
▁coordination	-3030
ply	-3031
▁baseline	-3032
▁Challen	-3033
▁alone	-3034
▁together	-3035
inate	-3036
ancy	-3037
▁via	-3038
▁among	-3039
▁forms	-3040
log	-3041
▁30	-3042
▁decline	-3043
ores	-3044
▁rule	-3045
▁shows	-3046
▁ambigu	-3047
▁weak	-3048
▁ste	-3049
▁ind	-3050
▁immediate	-3051
lective	-3052
▁pay	-3053
ufact	-3054
▁surface	-3055
▁motiv	-3056
▁First	-3057
▁moment	-3058
▁weight	-3059
tistic	-3060
▁ein	-3061
▁mag	-3062
isions	-3063
ulate	-3064
▁force	-3065
▁Man	-3066
integer	-3067
▁task	-3068
▁survival	-3069
▁limits	-3070
pire	-3071
▁clar	-3072
▁start	-3073
▁methodology	-3074
"]},"	-3075
▁logical	-3076
▁(2	-3077
▁literature	-3078
denti	-3079
▁functional	-3080
ault	-3081
▁innovation	-3082
▁audi	-3083
atically	-3084
▁providing	-3085
▁Comp	-3086
▁concepts	-3087
ills	-3088
▁called	-3089
▁let	-3090
gorith	-3091
▁matters	-3092
ico	-3093
▁universal	-3094
ont	-3095
▁pour	-3096
▁court	-3097
ausal	-3098
▁North	-3099
▁trajectory	-3100
▁wants	-3101
▁opportun	-3102
hy	-3103
▁format	-3104
rug	-3105
encies	-3106
▁Triangulation	-3107
just	-3108
▁199	-3109
ją	-3110
▁Car	-3111
▁cat	-3112
▁emer	-3113
▁situation	-3114
▁mer	-3115
▁landscape	-3116
▁external	-3117
▁additional	-3118
encing	-3119
vit	-3120
▁gradual	-3121
▁turn	-3122
▁accurate	-3123
ounter	-3124
▁China	-3125
ructural	-3126
▁increased	-3127
ię	-3128
ina	-3129
yle	-3130
ado	-3131
cons	-3132
▁teach	-3133
▁technological	-3134
ras	-3135
▁Retrieval	-3136
▁superior	-3137
▁BC	-3138
▁nu	-3139
hood	-3140
▁Bl	-3141
▁Real	-3142
udicial	-3143
▁climate	-3144
▁records	-3145
▁significance	-3146
ops	-3147
placement	-3148
zen	-3149
▁top	-3150
▁ancient	-3151
▁Inf	-3152
▁clos	-3153
aign	-3154
▁dipl	-3155
ogen	-3156
▁Buddh	-3157
▁capabilities	-3158
▁narrative	-3159
co	-3160
▁chain	-3161
▁cu	-3162
care	-3163
▁search	-3164
array	-3165
▁Limitations	-3166
▁All	-3167
▁prediction	-3168
▁Cal	-3169
▁appl	-3170
▁laws	-3171
▁match	-3172
▁behavioral	-3173
ered	-3174
blem	-3175
▁emb	-3176
▁East	-3177
iones	-3178
ioni	-3179
▁academic	-3180
▁consequ	-3181
ronic	-3182
▁jak	-3183
perial	-3184
▁competition	-3185
sts	-3186
▁include	-3187
▁mention	-3188
mentary	-3189
▁documentation	-3190
▁sil	-3191
▁variables	-3192
▁Method	-3193
▁nie	-3194
▁mut	-3195
duration	-3196
▁shifts	-3197
▁contain	-3198
▁children	-3199
▁interactions	-3200
▁Without	-3201
minder	-3202
▁Intern	-3203
▁circumst	-3204
▁since	-3205
aily	-3206
▁rational	-3207
▁ep	-3208
▁sex	-3209
▁rati	-3210
▁leadership	-3211
▁cycle	-3212
▁sa	-3213
nown	-3214
▁shared	-3215
erve	-3216
▁run	-3217
ensus	-3218
ania	-3219
titu	-3220
allel	-3221
▁Bas	-3222
▁maxim	-3223
▁exec	-3224
version	-3225
▁hypoth	-3226
azione	-3227
▁face	-3228
▁Reality	-3229
▁immun	-3230
▁programs	-3231
▁domain	-3232
▁resource	-3233
▁emotional	-3234
uries	-3235
▁dram	-3236
▁gre	-3237
```	-3238
▁```	-3239
ische	-3240
▁positions	-3241
En	-3242
oration	-3243
▁Fr	-3244
▁cris	-3245
▁usage	-3246
▁here	-3247
▁conven	-3248
▁rules	-3249
▁precedent	-3250
▁philosophical	-3251
▁hum	-3252
▁science	-3253
lative	-3254
▁involved	-3255
emb	-3256
▁matter	-3257
2⟩	-3258
5%	-3259
▁reve	-3260
▁Missing	-3261
▁diff	-3262
▁dominance	-3263
▁interpret	-3264
▁|	-3265
▁pod	-3266
bit	-3267
▁thinking	-3268
▁along	-3269
▁Me	-3270
eli	-3271
▁Roman	-3272
▁geographic	-3273
utic	-3274
▁regarding	-3275
▁14	-3276
▁word	-3277
▁necessary	-3278
onder	-3279
oll	-3280
tem	-3281
Re	-3282
▁she	-3283
ots	-3284
▁ground	-3285
▁seeking	-3286
▁Long	-3287
▁designed	-3288
▁investment	-3289
ki	-3290
ridge	-3291
▁dans	-3292
▁concerns	-3293
ustom	-3294
▁allows	-3295
entral	-3296
▁exc	-3297
▁explic	-3298
ego	-3299
oviet	-3300
▁favor	-3301
ocal	-3302
▁196	-3303
▁money	-3304
▁numer	-3305
▁party	-3306
▁phase	-3307
gle	-3308
▁units	-3309
▁involve	-3310
▁materials	-3311
▁tools	-3312
apy	-3313
▁too	-3314
▁account	-3315
ultim	-3316
▁criter	-3317
▁expec	-3318
▁circumstances	-3319
▁domestic	-3320
▁Mark	-3321
▁communities	-3322
ende	-3323
▁progress	-3324
▁volume	-3325
▁want	-3326
▁shap	-3327
▁arrang	-3328
▁spread	-3329
anies	-3330
▁substantial	-3331
ros	-3332
▁tak	-3333
▁Ma	-3334
▁appar	-3335
▁music	-3336
▁mil	-3337
▁digital	-3338
ophistic	-3339
ux	-3340
▁code	-3341
▁metab	-3342
▁author	-3343
▁campaign	-3344
etary	-3345
▁dest	-3346
resent	-3347
▁recon	-3348
like	-3349
inated	-3350
▁197	-3351
▁ful	-3352
▁histor	-3353
eness	-3354
▁optimal	-3355
▁qui	-3356
atform	-3357
▁Identi	-3358
▁sal	-3359
apeutic	-3360
▁interest	-3361
":[]}},{"	-3362
▁effectively	-3363
ooking	-3364
mic	-3365
▁Do	-3366
▁cop	-3367
itch	-3368
atus	-3369
▁port	-3370
▁official	-3371
▁figures	-3372
▁Pop	-3373
▁contribution	-3374
rig	-3375
mod	-3376
▁Co	-3377
▁institutions	-3378
▁nuc	-3379
▁Unc	-3380
ession	-3381
▁serves	-3382
▁Sm	-3383
▁days	-3384
▁Could	-3385
conn	-3386
▁ultim	-3387
enabled	-3388
1,	-3389
▁complet	-3390
-18	-3391
▁inters	-3392
▁season	-3393
irm	-3394
▁Univers	-3395
▁absol	-3396
side	-3397
ablished	-3398
▁popular	-3399
uish	-3400
▁counter	-3401
▁difficult	-3402
▁correlation	-3403
▁expand	-3404
▁para	-3405
▁star	-3406
ored	-3407
25	-3408
▁pa	-3409
▁offer	-3410
▁Conclusion	-3411
cing	-3412
▁mit	-3413
▁cer	-3414
going	-3415
▁DNA	-3416
▁barriers	-3417
▁comprom	-3418
▁prevent	-3419
ying	-3420
▁composition	-3421
pirical	-3422
▁someone	-3423
uter	-3424
liance	-3425
idd	-3426
▁think	-3427
▁members	-3428
▁statistical	-3429
▁regular	-3430
▁micro	-3431
▁paradox	-3432
check	-3433
ku	-3434
▁Early	-3435
▁architecture	-3436
).","	-3437
▁influenced	-3438
onic	-3439
▁progression	-3440
▁specified	-3441
▁screen	-3442
▁affects	-3443
▁phra	-3444
let	-3445
nic	-3446
▁sophistic	-3447
▁organization	-3448
▁ox	-3449
▁General	-3450
▁Christian	-3451
thetic	-3452
▁inform	-3453
▁beg	-3454
tenance	-3455
▁algorith	-3456
▁plus	-3457
▁Total	-3458
▁alternative	-3459
▁wy	-3460
▁benefit	-3461
▁Rep	-3462
bility	-3463
▁50	-3464
▁rein	-3465
rict	-3466
▁Act	-3467
▁acid	-3468
▁services	-3469
▁cos	-3470
ffic	-3471
va	-3472
▁ré	-3473
▁linguistic	-3474
▁testing	-3475
▁deep	-3476
▁Medical	-3477
▁resolution	-3478
▁pat	-3479
▁country	-3480
▁slow	-3481
aph	-3482
ungen	-3483
Un	-3484
▁monitor	-3485
▁biological	-3486
▁defic	-3487
▁incor	-3488
▁distance	-3489
bon	-3490
icht	-3491
▁ir	-3492
▁autom	-3493
▁fu	-3494
▁assumption	-3495
ali	-3496
Why	-3497
▁free	-3498
▁approxim	-3499
ulative	-3500
▁incomplete	-3501
▁overall	-3502
..."	-3503
ground	-3504
ermine	-3505
▁physics	-3506
▁negative	-3507
▁AI	-3508
▁Ital	-3509
▁day	-3510
▁Religious	-3511
▁compound	-3512
minal	-3513
▁Your	-3514
▁relig	-3515
▁symptoms	-3516
▁plant	-3517
esti	-3518
▁frequency	-3519
Com	-3520
Name	-3521
▁Indu	-3522
▁recent	-3523
▁Path	-3524
▁Pattern	-3525
▁artistic	-3526
▁norm	-3527
ken	-3528
▁relev	-3529
▁increasing	-3530
ime	-3531
▁perspective	-3532
▁product	-3533
tra	-3534
▁considered	-3535
▁diversity	-3536
imum	-3537
lease	-3538
▁identified	-3539
▁Min	-3540
▁Arch	-3541
zi	-3542
▁larger	-3543
cy	-3544
ourn	-3545
▁home	-3546
▁Islamic	-3547
ware	-3548
atial	-3549
ister	-3550
▁price	-3551
▁suggest	-3552
rete	-3553
▁roles	-3554
▁earlier	-3555
ove	-3556
▁movements	-3557
▁necessity	-3558
▁lies	-3559
gn	-3560
▁trigg	-3561
▁positive	-3562
▁li	-3563
▁detection	-3564
▁prom	-3565
What	-3566
▁fem	-3567
can	-3568
▁density	-3569
▁tac	-3570
▁keep	-3571
▁feed	-3572
▁Pe	-3573
▁separation	-3574
elling	-3575
▁doctrine	-3576
▁art	-3577
▁career	-3578
▁environments	-3579
attery	-3580
▁da	-3581
▁Problem	-3582
▁authentic	-3583
▁perman	-3584
tific	-3585
▁represented	-3586
▁project	-3587
vation	-3588
▁tiss	-3589
▁diverse	-3590
ming	-3591
▁Spanish	-3592
ami	-3593
media	-3594
arth	-3595
opol	-3596
▁determine	-3597
▁following	-3598
▁territorial	-3599
▁repro	-3600
▁disting	-3601
dev	-3602
▁consolid	-3603
rest	-3604
▁jud	-3605
▁explicit	-3606
▁Regional	-3607
aut	-3608
▁Hey	-3609
▁really	-3610
▁private	-3611
▁Di	-3612
▁198	-3613
▁heav	-3614
▁responses	-3615
ologies	-3616
ott	-3617
▁independence	-3618
▁computational	-3619
▁Parse	-3620
bs	-3621
zione	-3622
▁having	-3623
▁visual	-3624
▁International	-3625
▁On	-3626
▁ways	-3627
▁organizational	-3628
▁fram	-3629
▁measures	-3630
rant	-3631
▁Gu	-3632
▁magn	-3633
-3	-3634
ás	-3635
▁2025	-3636
▁unit	-3637
▁Institutional	-3638
▁como	-3639
▁overs	-3640
ubl	-3641
▁wer	-3642
▁mode	-3643
irth	-3644
reek	-3645
une	-3646
▁<	-3647
▁look	-3648
▁observation	-3649
▁identification	-3650
▁relative	-3651
indu	-3652
▁stop	-3653
▁consistency	-3654
▁quite	-3655
▁CE	-3656
ias	-3657
▁disruption	-3658
tt	-3659
▁fer	-3660
▁belief	-3661
ja	-3662
▁open	-3663
▁marri	-3664
ilter	-3665
▁throughout	-3666
▁stor	-3667
▁constant	-3668
change	-3669
▁Gl	-3670
▁imm	-3671
def	-3672
▁13	-3673
▁criteria	-3674
▁uncertain	-3675
▁conver	-3676
▁figure	-3677
▁massive	-3678
▁Clinical	-3679
▁ist	-3680
cultural	-3681
how	-3682
▁sequence	-3683
▁Cre	-3684
bes	-3685
▁Causal	-3686
▁consumption	-3687
▁appropriate	-3688
inding	-3689
▁rac	-3690
raft	-3691
▁fur	-3692
▁standardiz	-3693
▁consequences	-3694
▁filter	-3695
col	-3696
▁center	-3697
▁million	-3698
How	-3699
▁instru	-3700
Core	-3701
▁example	-3702
ee	-3703
ged	-3704
▁foreign	-3705
▁poli	-3706
▁outcome	-3707
▁representation	-3708
▁contrast	-3709
▁philosophy	-3710
▁educational	-3711
▁x	-3712
▁agricultural	-3713
ijn	-3714
▁cancer	-3715
▁percent	-3716
▁sufficient	-3717
▁increases	-3718
▁pra	-3719
olicy	-3720
▁Court	-3721
▁occurred	-3722
▁share	-3723
ée	-3724
▁II	-3725
ians	-3726
bo	-3727
▁By	-3728
▁continued	-3729
▁note	-3730
▁prop	-3731
riting	-3732
...*	-3733
aeological	-3734
hop	-3735
▁Soviet	-3736
ło	-3737
osis	-3738
▁medic	-3739
▁longer	-3740
rin	-3741
esearch	-3742
▁Military	-3743
▁patients	-3744
▁perfect	-3745
clus	-3746
▁tend	-3747
▁availability	-3748
iche	-3749
elves	-3750
▁Structure	-3751
▁Expl	-3752
son	-3753
▁ampl	-3754
pet	-3755
vironmental	-3756
▁involving	-3757
sch	-3758
▁fall	-3759
ster	-3760
▁attack	-3761
än	-3762
igence	-3763
▁intro	-3764
▁manif	-3765
ły	-3766
▁kon	-3767
lim	-3768
▁manufact	-3769
br	-3770
▁Fe	-3771
lock	-3772
▁ongoing	-3773
vestig	-3774
▁confirmed	-3775
orse	-3776
▁spect	-3777
ka	-3778
▁enable	-3779
▁procedures	-3780
plication	-3781
struction	-3782
▁hierarchy	-3783
lav	-3784
emory	-3785
iddle	-3786
▁Prot	-3787
▁initially	-3788
▁opposition	-3789
aves	-3790
▁companies	-3791
▁absor	-3792
cript	-3793
▁occurs	-3794
▁expect	-3795
ér	-3796
▁Fact	-3797
▁Met	-3798
ounts	-3799
▁decades	-3800
▁impacts	-3801
▁Ag	-3802
overe	-3803
▁Arab	-3804
wa	-3805
times	-3806
▁hours	-3807
▁didn	-3808
active	-3809
▁until	-3810
▁crisis	-3811
▁subsequ	-3812
▁contradiction	-3813
▁quanti	-3814
▁stable	-3815
▁concentration	-3816
2.	-3817
▁operates	-3818
2,	-3819
▁exception	-3820
vo	-3821
iform	-3822
▁essentially	-3823
▁quantitative	-3824
▁origin	-3825
▁supply	-3826
▁markers	-3827
▁nutri	-3828
▁poor	-3829
▁partn	-3830
▁parallel	-3831
ler	-3832
▁combination	-3833
▁anatom	-3834
lig	-3835
▁reference	-3836
▁pun	-3837
my	-3838
19	-3839
elt	-3840
▁assess	-3841
▁maintained	-3842
▁engineering	-3843
▁prz	-3844
▁premise	-3845
▁genu	-3846
▁continuity	-3847
▁Acc	-3848
▁maintenance	-3849
uit	-3850
▁next	-3851
ulated	-3852
▁feel	-3853
▁gain	-3854
▁locale	-3855
▁Regulatory	-3856
▁Even	-3857
ques	-3858
▁economy	-3859
▁continuous	-3860
▁dou	-3861
▁literary	-3862
eric	-3863
▁bud	-3864
enetic	-3865
overeign	-3866
▁description	-3867
▁Risk	-3868
▁categories	-3869
▁è	-3870
▁cities	-3871
▁distinguish	-3872
ised	-3873
▁fully	-3874
▁smaller	-3875
rical	-3876
▁very	-3877
osp	-3878
--	-3879
ctive	-3880
▁Exact	-3881
▁diagnostic	-3882
ministrative	-3883
▁centuries	-3884
▁inj	-3885
▁head	-3886
▁Mathematical	-3887
ara	-3888
geb	-3889
lor	-3890
▁sich	-3891
▁away	-3892
pects	-3893
▁enforcement	-3894
▁Task	-3895
▁tour	-3896
urrency	-3897
ticism	-3898
▁divine	-3899
▁theological	-3900
▁cry	-3901
▁mentioned	-3902
▁mechanics	-3903
▁film	-3904
▁solutions	-3905
▁regulation	-3906
oking	-3907
eper	-3908
▁Mus	-3909
tre	-3910
▁Det	-3911
▁Integ	-3912
odes	-3913
▁Mechanisms	-3914
Pro	-3915
▁oppos	-3916
▁ones	-3917
▁chann	-3918
▁recovery	-3919
▁scenario	-3920
arc	-3921
▁Sub	-3922
▁sense	-3923
Logical	-3924
andom	-3925
known	-3926
what	-3927
tiveness	-3928
▁combined	-3929
device	-3930
▁therapeutic	-3931
▁patient	-3932
▁revenue	-3933
▁heat	-3934
itively	-3935
▁connections	-3936
▁careful	-3937
nam	-3938
Th	-3939
▁qual	-3940
lete	-3941
▁versus	-3942
anguages	-3943
tition	-3944
▁daily	-3945
▁review	-3946
ni	-3947
ellectual	-3948
ished	-3949
▁Second	-3950
oot	-3951
▁dies	-3952
▁Same	-3953
▁jurisdiction	-3954
▁anim	-3955
▁hard	-3956
▁molecular	-3957
▁probability	-3958
▁(18	-3959
▁transl	-3960
▁Federal	-3961
▁Alternative	-3962
▁ten	-3963
▁near	-3964
▁etc	-3965
▁pred	-3966
asting	-3967
ording	-3968
mes	-3969
18	-3970
▁peak	-3971
idential	-3972
▁Eff	-3973
▁har	-3974
ront	-3975
oming	-3976
▁wrong	-3977
▁story	-3978
▁thems	-3979
email	-3980
▁sustained	-3981
▁necessarily	-3982
cription	-3983
▁themselves	-3984
zie	-3985
▁experiences	-3986
▁shar	-3987
▁wasn	-3988
▁demonstrates	-3989
▁valu	-3990
▁engagement	-3991
itivity	-3992
▁category	-3993
▁legitimacy	-3994
aste	-3995
▁nel	-3996
▁trying	-3997
bal	-3998
mark	-3999
▁disable	-4000
▁take	-4001
cle	-4002
equ	-4003
▁absolute	-4004
▁competitive	-4005
akes	-4006
ente	-4007
▁You	-4008
▁capture	-4009
▁Log	-4010
▁judicial	-4011
▁Let	-4012
lands	-4013
▁agre	-4014
▁mechanical	-4015
zne	-4016
▁Mechan	-4017
▁flexibility	-4018
used	-4019
▁imperial	-4020
ancing	-4021
▁States	-4022
▁school	-4023
aff	-4024
▁hold	-4025
▁procedural	-4026
▁clu	-4027
▁Greek	-4028
aged	-4029
▁wealth	-4030
ectors	-4031
▁plaus	-4032
▁developing	-4033
▁courts	-4034
uccess	-4035
▁Clear	-4036
▁acknowledge	-4037
▁Cath	-4038
▁surve	-4039
▁monitoring	-4040
▁participation	-4041
▁platform	-4042
▁conscious	-4043
iting	-4044
▁emerging	-4045
▁protein	-4046
▁gene	-4047
mode	-4048
▁rare	-4049
ono	-4050
▁(20	-4051
anking	-4052
crimin	-4053
▁bond	-4054
iment	-4055
▁accel	-4056
▁lit	-4057
▁chemical	-4058
▁collection	-4059
nen	-4060
ead	-4061
▁interests	-4062
▁problematic	-4063
▁months	-4064
▁company	-4065
▁194	-4066
▁entre	-4067
mosph	-4068
▁establishment	-4069
▁society	-4070
▁trends	-4071
▁languages	-4072
▁Fin	-4073
▁tou	-4074
▁accum	-4075
▁speak	-4076
istry	-4077
▁white	-4078
▁output	-4079
▁bur	-4080
cipl	-4081
▁fun	-4082
▁asks	-4083
contact	-4084
▁either	-4085
▁travel	-4086
▁challenging	-4087
▁partial	-4088
▁healthcare	-4089
▁193	-4090
▁gender	-4091
▁possib	-4092
▁mixed	-4093
▁typical	-4094
▁custom	-4095
porate	-4096
▁consensus	-4097
respon	-4098
▁lines	-4099
stream	-4100
▁related	-4101
rating	-4102
▁coop	-4103
▁completely	-4104
▁argu	-4105
▁To	-4106
ployment	-4107
▁identify	-4108
▁style	-4109
▁always	-4110
tó	-4111
▁sla	-4112
ighting	-4113
▁diplomatic	-4114
eff	-4115
▁another	-4116
3.	-4117
▁examples	-4118
bor	-4119
▁further	-4120
ema	-4121
uri	-4122
organ	-4123
▁demands	-4124
▁offic	-4125
▁minimal	-4126
zą	-4127
owe	-4128
▁framing	-4129
▁timeframe	-4130
▁writ	-4131
▁express	-4132
▁operate	-4133
▁previous	-4134
▁settings	-4135
▁legislative	-4136
▁prepar	-4137
▁evolved	-4138
oles	-4139
▁amount	-4140
▁Congress	-4141
▁sched	-4142
▁say	-4143
▁stru	-4144
▁das	-4145
≈1.	-4146
utive	-4147
▁mess	-4148
▁Structural	-4149
▁African	-4150
▁today	-4151
▁words	-4152
mitted	-4153
éc	-4154
▁disp	-4155
▁eas	-4156
Qu	-4157
endment	-4158
▁concentr	-4159
3,	-4160
▁auf	-4161
ES	-4162
wi	-4163
ban	-4164
▁subsequent	-4165
▁north	-4166
▁Avoid	-4167
.**	-4168
▁investig	-4169
▁fish	-4170
▁econom	-4171
1)	-4172
unctional	-4173
▁Cost	-4174
▁late	-4175
▁heart	-4176
ext	-4177
▁Research	-4178
tifications	-4179
:00	-4180
▁wa	-4181
▁evaluation	-4182
▁marg	-4183
▁sovereign	-4184
4.	-4185
rors	-4186
mar	-4187
▁Psych	-4188
fol	-4189
▁um	-4190
esta	-4191
Whether	-4192
▁revers	-4193
▁seg	-4194
▁Initial	-4195
▁coverage	-4196
elines	-4197
▁United	-4198
▁guidance	-4199
ountain	-4200
▁Policy	-4201
Ver	-4202
iation	-4203
▁subject	-4204
▁interaction	-4205
message	-4206
vements	-4207
Conf	-4208
arding	-4209
▁implies	-4210
▁empirical	-4211
4,	-4212
én	-4213
ohn	-4214
▁Commun	-4215
▁therapy	-4216
endar	-4217
▁eine	-4218
▁differenti	-4219
ani	-4220
▁classical	-4221
▁psychology	-4222
limit	-4223
itude	-4224
▁greater	-4225
▁cz	-4226
tique	-4227
▁któ	-4228
netic	-4229
antum	-4230
▁Market	-4231
alty	-4232
uses	-4233
▁goal	-4234
amily	-4235
▁sophisticated	-4236
▁60	-4237
▁requirement	-4238
▁ord	-4239
▁alter	-4240
▁impossibility	-4241
fe	-4242
▁że	-4243
▁symbol	-4244
▁products	-4245
▁regardless	-4246
▁repe	-4247
▁title	-4248
▁linear	-4249
▁territory	-4250
▁compliance	-4251
Ad	-4252
yt	-4253
onest	-4254
▁mapping	-4255
▁card	-4256
▁reminder	-4257
▁verify	-4258
ya	-4259
▁mort	-4260
▁income	-4261
▁element	-4262
notification	-4263
bum	-4264
▁Mo	-4265
idad	-4266
step	-4267
▁prze	-4268
atisf	-4269
stral	-4270
thing	-4271
▁methodological	-4272
Information	-4273
▁ultimately	-4274
▁Des	-4275
havior	-4276
▁severe	-4277
dri	-4278
▁je	-4279
▁window	-4280
▁distrib	-4281
▁autonomy	-4282
▁della	-4283
▁cycles	-4284
▁modeling	-4285
▁Her	-4286
▁decl	-4287
▁Future	-4288
▁happen	-4289
rect	-4290
tri	-4291
▁past	-4292
▁oil	-4293
▁Char	-4294
▁influences	-4295
▁kind	-4296
▁mental	-4297
ools	-4298
▁pros	-4299
▁Given	-4300
▁stream	-4301
bre	-4302
enz	-4303
roph	-4304
▁195	-4305
▁squ	-4306
▁Like	-4307
▁allocation	-4308
▁Redu	-4309
▁Republic	-4310
▁importance	-4311
▁neuro	-4312
rix	-4313
▁collabor	-4314
▁40	-4315
▁arg	-4316
athematic	-4317
established	-4318
bu	-4319
▁famil	-4320
flo	-4321
oud	-4322
▁highly	-4323
▁migration	-4324
osystem	-4325
▁Ind	-4326
▁purposes	-4327
▁liability	-4328
goti	-4329
▁recip	-4330
▁powers	-4331
▁alignment	-4332
ames	-4333
elij	-4334
igenous	-4335
▁sexual	-4336
▁más	-4337
▁11	-4338
▁led	-4339
▁tell	-4340
▁dominant	-4341
oler	-4342
uting	-4343
forward	-4344
▁BCE	-4345
tise	-4346
▁wid	-4347
▁systemic	-4348
▁election	-4349
▁destination	-4350
▁intellectual	-4351
▁Environmental	-4352
ła	-4353
▁tal	-4354
▁tissue	-4355
▁instead	-4356
elligence	-4357
▁component	-4358
▁improvement	-4359
tog	-4360
ading	-4361
▁fa	-4362
▁occup	-4363
▁battery	-4364
▁Challenge	-4365
▁für	-4366
▁trac	-4367
▁Question	-4368
▁Pres	-4369
▁drug	-4370
▁jurisdic	-4371
▁hal	-4372
▁sac	-4373
▁capability	-4374
▁Sec	-4375
▁scenarios	-4376
ipment	-4377
▁voice	-4378
▁allowed	-4379
▁Latin	-4380
▁apparent	-4381
▁specifics	-4382
▁definitively	-4383
▁adjust	-4384
▁actions	-4385
▁Op	-4386
▁Prof	-4387
▁achieve	-4388
▁writing	-4389
▁più	-4390
▁intu	-4391
▁shape	-4392
▁Japanese	-4393
▁specificity	-4394
ads	-4395
▁compens	-4396
▁preferences	-4397
▁neut	-4398
▁uses	-4399
ino	-4400
▁administration	-4401
▁Ur	-4402
▁Earth	-4403
amm	-4404
Synthesis	-4405
▁input	-4406
▁reading	-4407
▁Tem	-4408
▁Develop	-4409
▁consolidation	-4410
▁vel	-4411
▁propor	-4412
▁Ob	-4413
▁fat	-4414
▁Human	-4415
orph	-4416
▁side	-4417
▁Small	-4418
▁ratio	-4419
▁big	-4420
▁bill	-4421
▁scholars	-4422
iber	-4423
filter	-4424
▁phone	-4425
▁storage	-4426
▁criminal	-4427
▁meaningful	-4428
▁competing	-4429
redi	-4430
▁options	-4431
rate	-4432
brid	-4433
ità	-4434
AT	-4435
▁efforts	-4436
▁Population	-4437
▁depth	-4438
US	-4439
▁Er	-4440
▁creation	-4441
▁features	-4442
▁move	-4443
fare	-4444
water	-4445
ulf	-4446
▁four	-4447
▁jest	-4448
enting	-4449
ena	-4450
▁trib	-4451
ulture	-4452
▁sl	-4453
</	-4454
related	-4455
ieties	-4456
▁length	-4457
**.	-4458
ère	-4459
▁spl	-4460
▁Three	-4461
▁interven	-4462
▁sleep	-4463
▁Net	-4464
▁Other	-4465
▁om	-4466
ample	-4467
quality	-4468
▁permanent	-4469
▁genuine	-4470
.)	-4471
▁Memory	-4472
▁Main	-4473
▁names	-4474
spe	-4475
uly	-4476
▁Ste	-4477
▁electron	-4478
▁variable	-4479
most	-4480
ercise	-4481
▁depart	-4482
▁follows	-4483
▁medieval	-4484
so	-4485
▁cas	-4486
iam	-4487
oto	-4488
iction	-4489
▁funding	-4490
▁activities	-4491
="	-4492
hes	-4493
▁maj	-4494
▁deeper	-4495
ley	-4496
▁France	-4497
▁hom	-4498
odies	-4499
"]}},"	-4500
▁ont	-4501
upp	-4502
▁vision	-4503
encia	-4504
▁propos	-4505
dec	-4506
wal	-4507
▁Il	-4508
Verification	-4509
ticle	-4510
▁2026	-4511
▁explains	-4512
▁phenomenon	-4513
">	-4514
usal	-4515
ascular	-4516
▁perception	-4517
hic	-4518
iles	-4519
▁routes	-4520
▁controlled	-4521
▁Administrative	-4522
▁glob	-4523
zn	-4524
tinu	-4525
▁mal	-4526
▁conv	-4527
aced	-4528
▁conversion	-4529
under	-4530
ita	-4531
▁rul	-4532
▁Buddhist	-4533
▁ambiguity	-4534
▁rou	-4535
quis	-4536
▁validity	-4537
oe	-4538
▁dial	-4539
▁America	-4540
▁enables	-4541
▁measurements	-4542
▁Age	-4543
▁oblig	-4544
conf	-4545
"}},{"	-4546
plementation	-4547
▁extreme	-4548
value	-4549
itarian	-4550
▁narrow	-4551
ooks	-4552
▁Public	-4553
▁Central	-4554
▁cut	-4555
▁Port	-4556
▁stim	-4557
▁behind	-4558
▁Jew	-4559
ooth	-4560
▁ven	-4561
▁risks	-4562
ité	-4563
apse	-4564
▁leading	-4565
▁parts	-4566
▁applied	-4567
▁isolation	-4568
▁delay	-4569
▁differently	-4570
-5	-4571
▁timer	-4572
ameter	-4573
"}},"	-4574
▁aren	-4575
▁Uncertainty	-4576
▁ing	-4577
▁Educ	-4578
Critical	-4579
▁recommend	-4580
anie	-4581
▁economics	-4582
▁My	-4583
ired	-4584
▁Timeframe	-4585
▁pas	-4586
▁ét	-4587
▁expertise	-4588
▁violence	-4589
ipp	-4590
ographical	-4591
ción	-4592
▁Catholic	-4593
anger	-4594
▁confirmation	-4595
-10	-4596
float	-4597
otor	-4598
▁generation	-4599
▁vulnerability	-4600
roup	-4601
▁apply	-4602
▁inherently	-4603
▁Energy	-4604
▁objects	-4605
▁tw	-4606
▁job	-4607
▁expected	-4608
▁depending	-4609
▁ró	-4610
▁temper	-4611
dim	-4612
▁opportunities	-4613
▁India	-4614
▁cou	-4615
▁tensions	-4616
unch	-4617
amental	-4618
▁spatial	-4619
▁parameters	-4620
edom	-4621
▁Govern	-4622
ios	-4623
▁negoti	-4624
▁phrase	-4625
▁defense	-4626
▁revolution	-4627
rary	-4628
▁publ	-4629
▁majority	-4630
▁Sur	-4631
urance	-4632
▁seems	-4633
▁Integration	-4634
ND	-4635
▁average	-4636
▁sometimes	-4637
▁differential	-4638
coh	-4639
▁bad	-4640
▁emphasize	-4641
▁hypothesis	-4642
ibus	-4643
▁National	-4644
uk	-4645
▁altern	-4646
aur	-4647
▁gas	-4648
▁hyper	-4649
▁marriage	-4650
▁lif	-4651
▁house	-4652
room	-4653
▁Eg	-4654
▁mind	-4655
tica	-4656
▁restrictions	-4657
▁room	-4658
▁becoming	-4659
▁rob	-4660
asure	-4661
▁markets	-4662
▁straight	-4663
oring	-4664
▁Reason	-4665
raf	-4666
eren	-4667
▁musical	-4668
▁sent	-4669
▁causes	-4670
▁Classic	-4671
▁resol	-4672
▁feedback	-4673
pact	-4674
RI	-4675
ancement	-4676
▁Back	-4677
▁warfare	-4678
rightness	-4679
▁allowing	-4680
▁correspon	-4681
▁territories	-4682
▁piec	-4683
▁calculations	-4684
cil	-4685
▁fear	-4686
▁Broad	-4687
▁formula	-4688
▁attention	-4689
▁democratic	-4690
▁mand	-4691
▁Treat	-4692
▁sites	-4693
▁Democratic	-4694
▁Which	-4695
▁cooking	-4696
▁reliability	-4697
len	-4698
▁settle	-4699
▁random	-4700
aria	-4701
long	-4702
▁infin	-4703
▁World	-4704
orrow	-4705
range	-4706
iology	-4707
▁Non	-4708
▁efficient	-4709
▁schools	-4710
orders	-4711
▁Africa	-4712
▁embed	-4713
▁produce	-4714
▁alarm	-4715
▁discrimin	-4716
▁cellular	-4717
lin	-4718
▁cam	-4719
▁Bra	-4720
▁contextual	-4721
▁citiz	-4722
odynam	-4723
▁Think	-4724
location	-4725
17	-4726
lamm	-4727
▁atmosph	-4728
▁contains	-4729
▁Option	-4730
▁sensitivity	-4731
▁Logic	-4732
cean	-4733
▁last	-4734
▁stems	-4735
Im	-4736
▁satisf	-4737
▁thought	-4738
>.	-4739
▁●:	-4740
inating	-4741
wareness	-4742
▁symbolic	-4743
udi	-4744
uls	-4745
▁proof	-4746
▁Actual	-4747
▁equival	-4748
▁request	-4749
▁Spec	-4750
▁faster	-4751
▁technique	-4752
DP	-4753
alog	-4754
control	-4755
▁sz	-4756
▁zero	-4757
▁Fund	-4758
▁aspects	-4759
▁uniform	-4760
▁architectural	-4761
ises	-4762
unit	-4763
where	-4764
eds	-4765
▁ecosystem	-4766
lates	-4767
▁concrete	-4768
▁8.	-4769
anges	-4770
▁cum	-4771
arante	-4772
Get	-4773
▁reliable	-4774
ibri	-4775
▁intersection	-4776
▁compare	-4777
hibition	-4778
▁wait	-4779
▁equal	-4780
economic	-4781
▁acceptance	-4782
▁emerged	-4783
▁thermal	-4784
▁fragmentation	-4785
alls	-4786
▁manage	-4787
▁facts	-4788
▁plausible	-4789
▁`	-4790
▁subj	-4791
Number	-4792
▁consult	-4793
▁TV	-4794
2)	-4795
Ex	-4796
▁CO	-4797
▁bridge	-4798
zym	-4799
orship	-4800
▁division	-4801
▁moderate	-4802
▁jed	-4803
emical	-4804
▁decre	-4805
▁demonstrated	-4806
5,	-4807
▁God	-4808
rec	-4809
come	-4810
▁emergence	-4811
wed	-4812
▁sed	-4813
▁questions	-4814
wards	-4815
▁animals	-4816
enza	-4817
▁Work	-4818
enses	-4819
",	-4820
▁purpose	-4821
▁reduce	-4822
ifies	-4823
▁steps	-4824
state	-4825
▁rich	-4826
▁items	-4827
6,	-4828
▁Dist	-4829
▁zone	-4830
▁journ	-4831
▁exchange	-4832
:30	-4833
▁site	-4834
▁parti	-4835
8,	-4836
ść	-4837
oul	-4838
▁Austral	-4839
▁doc	-4840
▁cand	-4841
"],"	-4842
ietnam	-4843
▁built	-4844
▁simpl	-4845
Sh	-4846
post	-4847
▁explo	-4848
▁attempt	-4849
empl	-4850
high	-4851
▁saw	-4852
▁John	-4853
▁versch	-4854
▁interpretations	-4855
ama	-4856
ygen	-4857
phone	-4858
▁Common	-4859
utt	-4860
ductive	-4861
▁Higher	-4862
Al	-4863
▁overl	-4864
▁charg	-4865
De	-4866
▁conceptual	-4867
▁ey	-4868
estim	-4869
ida	-4870
▁ang	-4871
▁boundary	-4872
▁especial	-4873
attle	-4874
▁fixed	-4875
▁happens	-4876
cast	-4877
▁bro	-4878
▁binary	-4879
▁Italian	-4880
toggle	-4881
▁mathematic	-4882
ria	-4883
▁establishing	-4884
andon	-4885
▁surg	-4886
endo	-4887
lating	-4888
lue	-4889
▁Germany	-4890
ectiveness	-4891
List	-4892
▁continue	-4893
ds	-4894
airs	-4895
▁simply	-4896
▁manifest	-4897
14	-4898
▁Indian	-4899
▁option	-4900
▁sovereignty	-4901
▁miss	-4902
▁once	-4903
▁scholarly	-4904
▁relevant	-4905
99	-4906
icing	-4907
▁Source	-4908
▁emerges	-4909
.*	-4910
ocumented	-4911
▁fri	-4912
▁Single	-4913
▁binding	-4914
▁Methodological	-4915
▁Elect	-4916
jection	-4917
▁Hy	-4918
▁Bal	-4919
▁suff	-4920
▁Likely	-4921
▁geometric	-4922
▁plants	-4923
▁cardi	-4924
-4	-4925
▁UK	-4926
▁block	-4927
▁preference	-4928
▁watch	-4929
▁Technology	-4930
▁ze	-4931
▁youn	-4932
ées	-4933
▁Val	-4934
tile	-4935
▁grand	-4936
24	-4937
avi	-4938
▁texts	-4939
▁manufacturing	-4940
▁birth	-4941
▁build	-4942
▁partnership	-4943
iat	-4944
▁emphasis	-4945
▁skills	-4946
why	-4947
▁dys	-4948
▁immune	-4949
▁extended	-4950
▁foundational	-4951
▁Found	-4952
▁Church	-4953
▁mir	-4954
itig	-4955
iance	-4956
▁extensive	-4957
▁left	-4958
▁metaph	-4959
▁chron	-4960
body	-4961
▁rad	-4962
Ar	-4963
▁enough	-4964
▁trust	-4965
▁metabolic	-4966
▁Trade	-4967
▁currently	-4968
▁validation	-4969
True	-4970
▁south	-4971
▁guarante	-4972
▁—	-4973
▁far	-4974
▁cover	-4975
▁suppor	-4976
ander	-4977
▁dass	-4978
normal	-4979
▁wie	-4980
▁persistence	-4981
▁seeks	-4982
reme	-4983
▁Qual	-4984
▁king	-4985
▁intelligence	-4986
ards	-4987
titude	-4988
▁began	-4989
▁coast	-4990
▁goals	-4991
▁commitment	-4992
▁zijn	-4993
▁awareness	-4994
eks	-4995
▁Russian	-4996
▁properly	-4997
ifications	-4998
▁conservation	-4999
▁growing	-5000
▁contract	-5001
▁workers	-5002
≈1.2⟩	-5003
amin	-5004
▁ill	-5005
▁best	-5006
second	-5007
add	-5008
key	-5009
▁contribute	-5010
▁item	-5011
▁developmental	-5012
"?	-5013
▁supports	-5014
75	-5015
▁fire	-5016
▁gets	-5017
▁speech	-5018
▁naturally	-5019
ER	-5020
▁learn	-5021
▁Resource	-5022
▁breath	-5023
▁served	-5024
▁suggesting	-5025
▁Po	-5026
):**	-5027
cohol	-5028
▁maintains	-5029
▁ecological	-5030
cep	-5031
▁Eth	-5032
▁Hol	-5033
▁seem	-5034
▁valuable	-5035
bell	-5036
▁Gaps	-5037
▁Implications	-5038
über	-5039
▁Ter	-5040
▁achieved	-5041
▁choices	-5042
bl	-5043
▁{	-5044
▁Fre	-5045
▁roz	-5046
▁Contemporary	-5047
hal	-5048
ido	-5049
▁iron	-5050
▁nuclear	-5051
▁students	-5052
▁recognized	-5053
▁Les	-5054
▁unpre	-5055
▁cultures	-5056
km	-5057
havioral	-5058
▁weather	-5059
ito	-5060
idity	-5061
mediately	-5062
▁root	-5063
▁translation	-5064
▁Natural	-5065
ping	-5066
▁vict	-5067
▁Def	-5068
▁miscon	-5069
▁theories	-5070
▁reasonable	-5071
▁ax	-5072
vide	-5073
▁lim	-5074
▁discovery	-5075
ao	-5076
match	-5077
▁series	-5078
▁spending	-5079
pi	-5080
▁yet	-5081
ising	-5082
▁habit	-5083
▁lat	-5084
▁Sci	-5085
▁hun	-5086
▁indicates	-5087
▁Process	-5088
▁black	-5089
▁secondary	-5090
▁replacement	-5091
ön	-5092
▁voting	-5093
▁↓	-5094
create	-5095
▁identifier	-5096
▁ideological	-5097
▁got	-5098
▁interventions	-5099
▁triangulation	-5100
▁1970	-5101
▁historically	-5102
▁organizations	-5103
ounting	-5104
utation	-5105
illed	-5106
▁hydro	-5107
▁compet	-5108
function	-5109
▁categor	-5110
▁1960	-5111
▁basis	-5112
▁Ext	-5113
words	-5114
▁goods	-5115
ensional	-5116
▁Primary	-5117
izz	-5118
▁moving	-5119
▁cooperation	-5120
ét	-5121
cie	-5122
rice	-5123
tick	-5124
▁wonder	-5125
iency	-5126
▁seconds	-5127
dem	-5128
▁voor	-5129
▁Major	-5130
▁weap	-5131
▁Global	-5132
▁muscle	-5133
▁link	-5134
▁collapse	-5135
▁Pos	-5136
▁bar	-5137
▁emp	-5138
▁hem	-5139
▁zones	-5140
▁Explain	-5141
▁dependency	-5142
ede	-5143
▁1980	-5144
▁door	-5145
ategory	-5146
▁spaces	-5147
7,	-5148
▁80	-5149
ocks	-5150
porting	-5151
▁Ro	-5152
atur	-5153
xiety	-5154
▁budget	-5155
▁living	-5156
▁ritual	-5157
▁legitimate	-5158
▁↑	-5159
▁ID	-5160
title	-5161
▁alle	-5162
likely	-5163
▁optional	-5164
▁Civil	-5165
ii	-5166
▁Black	-5167
▁centers	-5168
▁experimental	-5169
▁intent	-5170
▁Language	-5171
Res	-5172
ilibri	-5173
▁Factors	-5174
ags	-5175
▁Under	-5176
▁peace	-5177
orem	-5178
▁dro	-5179
▁config	-5180
▁tests	-5181
▁Industrial	-5182
▁accessible	-5183
rane	-5184
▁colon	-5185
▁physiological	-5186
inning	-5187
itness	-5188
▁pricing	-5189
▁conflicts	-5190
Ret	-5191
▁deli	-5192
ulus	-5193
▁approximately	-5194
Rec	-5195
▁constit	-5196
▁globally	-5197
▁Implementation	-5198
▁families	-5199
▁sem	-5200
▁coher	-5201
▁never	-5202
world	-5203
__	-5204
timer	-5205
▁decade	-5206
▁unknown	-5207
omin	-5208
▁abandon	-5209
▁Personal	-5210
iff	-5211
stop	-5212
▁dyn	-5213
▁Over	-5214
nes	-5215
eling	-5216
ranch	-5217
ca	-5218
▁church	-5219
▁precis	-5220
▁expectations	-5221
cor	-5222
ungs	-5223
▁contributions	-5224
500	-5225
break	-5226
▁Gap	-5227
PA	-5228
ips	-5229
▁complications	-5230
▁Vol	-5231
▁hor	-5232
isons	-5233
▁manip	-5234
▁associated	-5235
▁dur	-5236
▁bacter	-5237
8.	-5238
pling	-5239
▁hub	-5240
▁mism	-5241
▁report	-5242
▁kil	-5243
ulting	-5244
▁compounds	-5245
self	-5246
hours	-5247
▁observed	-5248
▁pack	-5249
idents	-5250
▁morph	-5251
▁freedom	-5252
▁dimensions	-5253
▁situations	-5254
5.	-5255
file	-5256
more	-5257
▁trend	-5258
▁abst	-5259
▁fields	-5260
▁facilit	-5261
▁background	-5262
fl	-5263
▁Digital	-5264
▁coe	-5265
▁lost	-5266
16	-5267
ruit	-5268
▁flows	-5269
▁km	-5270
▁mi	-5271
▁solid	-5272
▁~2	-5273
olar	-5274
▁poly	-5275
▁Pr	-5276
rage	-5277
▁Int	-5278
rovers	-5279
fficiency	-5280
▁Party	-5281
▁table	-5282
▁tracking	-5283
▁examination	-5284
▁whole	-5285
▁predictions	-5286
▁Sun	-5287
▁parties	-5288
▁described	-5289
▁operation	-5290
▁“	-5291
▁strugg	-5292
▁1:	-5293
query	-5294
▁extra	-5295
aciones	-5296
▁convergence	-5297
▁mission	-5298
▁stri	-5299
▁affected	-5300
temperature	-5301
3)	-5302
▁delle	-5303
pa	-5304
▁mobility	-5305
achment	-5306
▁archaeological	-5307
rown	-5308
▁sector	-5309
▁Constitutional	-5310
▁pharm	-5311
▁animal	-5312
▁Eastern	-5313
zo	-5314
esto	-5315
▁Anti	-5316
▁connected	-5317
▁involvement	-5318
uma	-5319
▁Asia	-5320
▁quick	-5321
▁compos	-5322
▁ster	-5323
▁Empire	-5324
▁increasingly	-5325
▁appoint	-5326
asion	-5327
▁errors	-5328
7.	-5329
ively	-5330
▁casc	-5331
ief	-5332
11	-5333
ha	-5334
ko	-5335
oro	-5336
▁1,	-5337
AS	-5338
▁Better	-5339
▁tactical	-5340
▁Regarding	-5341
▁avec	-5342
▁fasc	-5343
ateral	-5344
itable	-5345
▁profile	-5346
▁Sen	-5347
▁statistics	-5348
rack	-5349
rees	-5350
luc	-5351
▁oversight	-5352
hyth	-5353
rist	-5354
▁fr	-5355
▁70	-5356
▁Sym	-5357
▁written	-5358
▁correction	-5359
▁came	-5360
▁severity	-5361
umer	-5362
▁sie	-5363
▁notification	-5364
esthetic	-5365
▁reforms	-5366
▁Professional	-5367
▁incorpor	-5368
head	-5369
▁gradi	-5370
▁Counter	-5371
▁Cette	-5372
▁inevit	-5373
▁motion	-5374
▁Mal	-5375
▁feas	-5376
▁rigor	-5377
▁EU	-5378
search	-5379
▁toler	-5380
▁handle	-5381
formance	-5382
lude	-5383
east	-5384
▁relatively	-5385
itime	-5386
▁politics	-5387
"},"	-5388
▁Orig	-5389
▁Resolution	-5390
▁prevention	-5391
▁Dies	-5392
utch	-5393
book	-5394
▁book	-5395
amount	-5396
▁Jewish	-5397
▁addition	-5398
xic	-5399
heit	-5400
▁split	-5401
▁reaction	-5402
▁temporary	-5403
▁emerge	-5404
▁lic	-5405
vals	-5406
▁soil	-5407
▁Compe	-5408
▁describes	-5409
ät	-5410
acji	-5411
▁matrix	-5412
▁Infrastructure	-5413
▁Form	-5414
subject	-5415
▁carbon	-5416
▁neural	-5417
urable	-5418
▁stage	-5419
car	-5420
unk	-5421
open	-5422
view	-5423
iliar	-5424
▁rock	-5425
▁underst	-5426
▁developments	-5427
▁sav	-5428
▁ethical	-5429
CA	-5430
fit	-5431
vis	-5432
▁computer	-5433
▁delivery	-5434
9,	-5435
▁arri	-5436
▁reveals	-5437
▁geometry	-5438
▁serious	-5439
▁gr	-5440
point	-5441
▁realism	-5442
▁24	-5443
inner	-5444
▁Will	-5445
▁soft	-5446
▁helps	-5447
▁getting	-5448
metic	-5449
word	-5450
sens	-5451
▁route	-5452
finition	-5453
gressive	-5454
edic	-5455
▁perce	-5456
ymi	-5457
▁objec	-5458
▁places	-5459
▁enabled	-5460
▁anatomical	-5461
vi	-5462
tie	-5463
▁farm	-5464
tility	-5465
Start	-5466
▁forward	-5467
CO	-5468
uli	-5469
plex	-5470
▁week	-5471
iph	-5472
pan	-5473
▁---	-5474
▁90	-5475
▁Vietnam	-5476
▁intensity	-5477
▁employment	-5478
▁Cap	-5479
":{},"	-5480
▁contributed	-5481
▁Reduced	-5482
▁dig	-5483
▁comes	-5484
▁equipment	-5485
▁consideration	-5486
gebra	-5487
▁Vari	-5488
9.	-5489
clos	-5490
ride	-5491
▁Since	-5492
▁vehic	-5493
▁compromise	-5494
▁Strong	-5495
▁discuss	-5496
▁mortality	-5497
social	-5498
▁⟨/	-5499
ided	-5500
▁bes	-5501
▁Their	-5502
▁explicitly	-5503
IS	-5504
▁#	-5505
▁Aug	-5506
100	-5507
▁Immediate	-5508
pread	-5509
iem	-5510
▁cryst	-5511
tinction	-5512
▁tro	-5513
▁sob	-5514
▁candid	-5515
cling	-5516
▁album	-5517
ball	-5518
?)	-5519
▁behavi	-5520
▁responsibility	-5521
itis	-5522
▁great	-5523
▁Functional	-5524
ift	-5525
▁kom	-5526
▁debt	-5527
auc	-5528
▁fast	-5529
elfare	-5530
▁exclus	-5531
▁immediately	-5532
Em	-5533
▁paths	-5534
ecution	-5535
▁prices	-5536
▁preparation	-5537
rian	-5538
▁changing	-5539
▁existence	-5540
umb	-5541
▁Appro	-5542
▁nicht	-5543
▁sample	-5544
▁clean	-5545
▁signal	-5546
▁speculative	-5547
▁revolutionary	-5548
ifi	-5549
▁Add	-5550
▁cod	-5551
ought	-5552
▁Identification	-5553
6.	-5554
▁burden	-5555
▁percentage	-5556
▁Focus	-5557
asks	-5558
Cl	-5559
anda	-5560
▁pal	-5561
▁combin	-5562
▁layers	-5563
ured	-5564
▁complementary	-5565
▁agg	-5566
metry	-5567
complete	-5568
▁Maybe	-5569
label	-5570
▁expon	-5571
▁channels	-5572
▁integrated	-5573
▁hol	-5574
▁Ref	-5575
▁Urban	-5576
unic	-5577
▁carri	-5578
▁Universal	-5579
▁criticism	-5580
▁effic	-5581
▁tourism	-5582
▁acknowledgment	-5583
▁coal	-5584
▁gold	-5585
zation	-5586
ailable	-5587
▁extent	-5588
AR	-5589
Confidence	-5590
fy	-5591
.</	-5592
argets	-5593
▁medicine	-5594
▁extraction	-5595
bi	-5596
▁else	-5597
ishing	-5598
▁citizens	-5599
itage	-5600
▁1/	-5601
▁live	-5602
▁song	-5603
nel	-5604
▁preserved	-5605
Ge	-5606
scale	-5607
ationship	-5608
▁proteins	-5609
▁structured	-5610
▁Comb	-5611
▁truth	-5612
▁conflating	-5613
ben	-5614
▁Aut	-5615
▁ich	-5616
▁proxim	-5617
▁geography	-5618
▁radiation	-5619
▁instability	-5620
▁Mass	-5621
▁behaviors	-5622
aux	-5623
rief	-5624
▁Data	-5625
▁showing	-5626
▁implement	-5627
entes	-5628
▁evid	-5629
▁Honest	-5630
▁exercise	-5631
":{}},{"	-5632
▁UN	-5633
status	-5634
▁release	-5635
▁Evolution	-5636
▁/	-5637
▁utility	-5638
▁consumer	-5639
▁rail	-5640
liament	-5641
new	-5642
▁file	-5643
▁veloc	-5644
▁affecting	-5645
▁arrangements	-5646
mm	-5647
▁Amendment	-5648
▁improvements	-5649
▁cred	-5650
▁dynamic	-5651
▁scienti	-5652
▁projects	-5653
▁integrity	-5654
▁consciousness	-5655
otes	-5656
ados	-5657
▁consent	-5658
▁maximum	-5659
▁misconception	-5660
▁remov	-5661
▁double	-5662
▁strict	-5663
▁transc	-5664
▁quantum	-5665
rust	-5666
azioni	-5667
▁extrem	-5668
▁justif	-5669
▁purely	-5670
quisition	-5671
▁remark	-5672
▁Strategy	-5673
▁dimension	-5674
ls	-5675
ilding	-5676
▁horm	-5677
ilibrium	-5678
▁factual	-5679
▁Bu	-5680
ulating	-5681
▁intuition	-5682
ows	-5683
▁sph	-5684
▁hous	-5685
▁determines	-5686
▁predictive	-5687
▁discrimination	-5688
throp	-5689
▁unified	-5690
documented	-5691
▁mog	-5692
tiny	-5693
▁dates	-5694
▁mountain	-5695
▁zw	-5696
▁190	-5697
▁wal	-5698
▁über	-5699
▁assumptions	-5700
da	-5701
▁King	-5702
▁finite	-5703
▁Success	-5704
▁barrier	-5705
▁yield	-5706
▁inten	-5707
▁legacy	-5708
stru	-5709
ję	-5710
draw	-5711
▁orient	-5712
▁róż	-5713
▁Addition	-5714
cipe	-5715
▁Rem	-5716
▁rig	-5717
78	-5718
▁ś	-5719
▁2000	-5720
▁perm	-5721
▁maybe	-5722
▁everything	-5723
▁ſ	-5724
ague	-5725
▁Vis	-5726
press	-5727
▁metal	-5728
▁anxiety	-5729
▁analytical	-5730
án	-5731
▁introdu	-5732
▁Construction	-5733
-12	-5734
▁Asian	-5735
▁justice	-5736
▁nations	-5737
zing	-5738
▁Law	-5739
legal	-5740
▁accounts	-5741
▁Psychological	-5742
lay	-5743
pper	-5744
rich	-5745
≈0.2⟩	-5746
▁protections	-5747
▁Academic	-5748
▁failed	-5749
▁racial	-5750
▁recept	-5751
▁absorption	-5752
▁signals	-5753
▁vulnerable	-5754
▁conduct	-5755
ailed	-5756
▁1990	-5757
▁nom	-5758
▁Mex	-5759
▁promin	-5760
▁electoral	-5761
▁cr	-5762
event	-5763
▁marketing	-5764
destination	-5765
gra	-5766
ellen	-5767
▁danger	-5768
▁exceed	-5769
▁paradig	-5770
▁characterized	-5771
bing	-5772
▁focused	-5773
▁demonstrate	-5774
▁arbit	-5775
▁encounter	-5776
▁conservative	-5777
tige	-5778
▁said	-5779
▁Special	-5780
▁clearly	-5781
▁phenomena	-5782
▁algorithms	-5783
tex	-5784
▁br	-5785
appro	-5786
▁bodies	-5787
▁straightforward	-5788
argeting	-5789
eld	-5790
vate	-5791
▁incl	-5792
isch	-5793
▁repl	-5794
vant	-5795
▁especially	-5796
plicit	-5797
ustain	-5798
▁nuanced	-5799
ua	-5800
cap	-5801
▁milit	-5802
▁setting	-5803
▁powerful	-5804
asty	-5805
▁Does	-5806
▁adequ	-5807
▁Broader	-5808
YY	-5809
▁Ber	-5810
▁mid	-5811
ience	-5812
▁West	-5813
▁liberal	-5814
▁cette	-5815
▁origins	-5816
rep	-5817
▁Impact	-5818
▁appeal	-5819
▁continues	-5820
ourse	-5821
▁Oper	-5822
▁remained	-5823
▁stronger	-5824
wind	-5825
card	-5826
tery	-5827
osion	-5828
ny	-5829
▁And	-5830
▁creative	-5831
▁seasonal	-5832
▁experiment	-5833
ky	-5834
ignific	-5835
▁discover	-5836
▁documents	-5837
▁gains	-5838
▁inherent	-5839
▁understood	-5840
ują	-5841
▁Whether	-5842
▁mathematics	-5843
▁ou	-5844
▁ped	-5845
▁River	-5846
▁named	-5847
▁couldn	-5848
▁remaining	-5849
udes	-5850
▁consistently	-5851
DA	-5852
hab	-5853
▁pan	-5854
hibit	-5855
▁Less	-5856
▁asym	-5857
through	-5858
tically	-5859
▁ben	-5860
▁25	-5861
▁advanced	-5862
ney	-5863
▁omitted	-5864
idespread	-5865
ithmetic	-5866
▁navigation	-5867
▁Equ	-5868
▁2025-0	-5869
abric	-5870
▁mix	-5871
▁Health	-5872
connected	-5873
▁attempts	-5874
▁controvers	-5875
argo	-5876
▁cerem	-5877
▁campaigns	-5878
otion	-5879
▁label	-5880
▁ownership	-5881
with	-5882
▁advoc	-5883
▁mu	-5884
standing	-5885
▁targets	-5886
▁cele	-5887
category	-5888
▁demonst	-5889
▁sist	-5890
▁Organ	-5891
▁thresholds	-5892
▁accessibility	-5893
▁jurisdictions	-5894
ulty	-5895
▁motivation	-5896
▁transitions	-5897
▁Evolutionary	-5898
_1	-5899
ptive	-5900
▁give	-5901
▁books	-5902
▁purch	-5903
▁incons	-5904
▁biology	-5905
del	-5906
▁penet	-5907
▁humans	-5908
▁variants	-5909
▁Supp	-5910
▁reserv	-5911
▁Wait	-5912
▁seen	-5913
▁debate	-5914
▁2026-0	-5915
sol	-5916
▁assign	-5917
▁shaped	-5918
▁accumulation	-5919
ago	-5920
abling	-5921
▁geological	-5922
▁2:	-5923
anks	-5924
count	-5925
▁dead	-5926
▁chrom	-5927
▁graph	-5928
itative	-5929
▁station	-5930
▁welfare	-5931
lichen	-5932
▁matches	-5933
▁Additionally	-5934
")	-5935
cest	-5936
▁From	-5937
▁defined	-5938
zz	-5939
oval	-5940
▁192	-5941
▁alongside	-5942
ini	-5943
▁supported	-5944
pen	-5945
ragm	-5946
▁aid	-5947
ég	-5948
vil	-5949
▁Sup	-5950
class	-5951
▁half	-5952
▁includes	-5953
▁She	-5954
▁dei	-5955
▁activation	-5956
▁instruction	-5957
ige	-5958
▁stem	-5959
luence	-5960
erior	-5961
▁przy	-5962
▁Southern	-5963
▁¿	-5964
iling	-5965
▁irre	-5966
▁execution	-5967
▁Child	-5968
ishment	-5969
issance	-5970
▁Family	-5971
▁audience	-5972
aker	-5973
▁Tur	-5974
uty	-5975
▁jako	-5976
▁skin	-5977
casting	-5978
▁degrees	-5979
▁discipl	-5980
▁ranking	-5981
▁traffic	-5982
▁1950	-5983
▁confused	-5984
▁sea	-5985
▁preven	-5986
▁ambiguous	-5987
▁magnitude	-5988
nej	-5989
▁Ott	-5990
▁cul	-5991
▁pregn	-5992
▁oxygen	-5993
▁Climate	-5994
path	-5995
▁durch	-5996
radation	-5997
▁meeting	-5998
yal	-5999
acing	-6000
▁Auth	-6001
▁speculation	-6002
▁tub	-6003
▁hon	-6004
▁wave	-6005
asticity	-6006
▁display	-6007
▁ideal	-6008
▁Government	-6009
▁Ed	-6010
▁comme	-6011
▁machine	-6012
▁destruction	-6013
asonal	-6014
▁Portug	-6015
ognition	-6016
▁England	-6017
▁alcohol	-6018
▁Kh	-6019
ró	-6020
▁argument	-6021
▁retention	-6022
gative	-6023
▁targeted	-6024
better	-6025
▁reasons	-6026
ticip	-6027
▁notable	-6028
▁principal	-6029
pm	-6030
▁vit	-6031
▁eventually	-6032
hol	-6033
▁overlap	-6034
rological	-6035
▁Medieval	-6036
▁medication	-6037
▁Kore	-6038
▁Russia	-6039
▁alternatives	-6040
iej	-6041
last	-6042
▁Set	-6043
▁pap	-6044
▁novel	-6045
▁adaptations	-6046
▁arrangement	-6047
65	-6048
eat	-6049
run	-6050
kow	-6051
untary	-6052
▁layer	-6053
▁night	-6054
TP	-6055
Tim	-6056
ola	-6057
uel	-6058
▁feature	-6059
dy	-6060
agon	-6061
zyme	-6062
▁sets	-6063
▁improved	-6064
▁referring	-6065
-200	-6066
ecking	-6067
rus	-6068
ahren	-6069
▁There	-6070
▁embedded	-6071
▁male	-6072
▁Dutch	-6073
▁missing	-6074
▁comparisons	-6075
▁dramatically	-6076
▁Bar	-6077
▁dell	-6078
▁stabil	-6079
▁Behavioral	-6080
▁Systematic	-6081
▁protective	-6082
omic	-6083
▁forced	-6084
top	-6085
impl	-6086
▁Har	-6087
▁few	-6088
▁corporate	-6089
▁brand	-6090
▁hybrid	-6091
avy	-6092
▁push	-6093
▁Syn	-6094
idation	-6095
▁neu	-6096
▁vess	-6097
▁serving	-6098
▁collective	-6099
▁sin	-6100
Check	-6101
▁Challenges	-6102
▁modification	-6103
▁drive	-6104
▁motor	-6105
osc	-6106
▁host	-6107
▁Consider	-6108
▁calendar	-6109
aft	-6110
▁neigh	-6111
▁spectrum	-6112
▁mel	-6113
▁Note	-6114
▁rain	-6115
mercial	-6116
▁largest	-6117
▁diagnosis	-6118
▁Coun	-6119
▁Land	-6120
▁electric	-6121
▁close	-6122
▁norms	-6123
▁isolated	-6124
resh	-6125
▁gro	-6126
▁foot	-6127
▁promo	-6128
▁third	-6129
host	-6130
vari	-6131
▁useful	-6132
▁sun	-6133
illing	-6134
▁charge	-6135
appe	-6136
▁aux	-6137
▁chronic	-6138
▁astr	-6139
▁metabol	-6140
▁certainty	-6141
▁inevitable	-6142
▁aspect	-6143
▁infection	-6144
▁auto	-6145
▁driven	-6146
▁transportation	-6147
rem	-6148
▁improve	-6149
ży	-6150
▁21	-6151
wide	-6152
drome	-6153
▁Great	-6154
▁trigger	-6155
political	-6156
▁matching	-6157
▁rot	-6158
liche	-6159
▁rapp	-6160
▁Mu	-6161
▁One	-6162
aper	-6163
acu	-6164
▁Del	-6165
▁GDP	-6166
▁nucle	-6167
▁determining	-6168
▁teams	-6169
▁returns	-6170
▁ideas	-6171
▁Ha	-6172
orum	-6173
ogene	-6174
▁Dynam	-6175
▁ethnic	-6176
▁flight	-6177
▁definitions	-6178
mp	-6179
▁flo	-6180
▁successfully	-6181
Time	-6182
▁illu	-6183
driven	-6184
metric	-6185
▁stages	-6186
ady	-6187
▁river	-6188
▁retain	-6189
anz	-6190
▁Complete	-6191
▁addressing	-6192
▁Gra	-6193
▁expanded	-6194
▁Educational	-6195
▁culti	-6196
▁mismatch	-6197
▁targeting	-6198
▁personality	-6199
tw	-6200
inn	-6201
▁Must	-6202
▁standardization	-6203
▁bott	-6204
▁poll	-6205
▁indigenous	-6206
▁sustainability	-6207
aby	-6208
▁prevents	-6209
▁Foundation	-6210
▁standardized	-6211
3⟩	-6212
ona	-6213
anned	-6214
▁deriv	-6215
▁handling	-6216
AC	-6217
tym	-6218
▁robust	-6219
▁reduces	-6220
▁zn	-6221
▁dont	-6222
▁tasks	-6223
▁productivity	-6224
▁genre	-6225
atistical	-6226
▁chemistry	-6227
▁five	-6228
▁absence	-6229
▁dark	-6230
inates	-6231
▁changed	-6232
▁naming	-6233
▁Financial	-6234
▁mechanistic	-6235
nego	-6236
▁distributed	-6237
▁ok	-6238
isms	-6239
▁numerical	-6240
ested	-6241
▁Emphas	-6242
▁inflamm	-6243
ają	-6244
code	-6245
izon	-6246
zone	-6247
▁Lib	-6248
▁ren	-6249
▁False	-6250
▁photo	-6251
▁ut	-6252
▁Rad	-6253
hen	-6254
odo	-6255
▁propag	-6256
▁heavily	-6257
▁ingredi	-6258
▁widespread	-6259
▁entry	-6260
entical	-6261
▁presents	-6262
▁presentation	-6263
▁height	-6264
ommod	-6265
▁warm	-6266
▁Local	-6267
▁predicting	-6268
ams	-6269
▁ice	-6270
iento	-6271
▁stone	-6272
▁compensation	-6273
▁judgment	-6274
▁TH	-6275
cell	-6276
▁escal	-6277
▁aus	-6278
▁cin	-6279
▁cataly	-6280
▁command	-6281
▁routine	-6282
▁gar	-6283
▁Classical	-6284
▁statement	-6285
▁divergence	-6286
sum	-6287
ernal	-6288
▁Basic	-6289
seconds	-6290
ava	-6291
▁radio	-6292
▁particles	-6293
▁minimum	-6294
pted	-6295
▁cool	-6296
elsius	-6297
▁driving	-6298
▁applies	-6299
ności	-6300
▁weeks	-6301
≈0.3⟩	-6302
▁House	-6303
▁nerve	-6304
▁correl	-6305
▁conflates	-6306
free	-6307
▁proximity	-6308
yro	-6309
▁pul	-6310
▁interact	-6311
ario	-6312
▁authenticity	-6313
▁characteristic	-6314
pay	-6315
▁arm	-6316
▁rhyth	-6317
▁dramatic	-6318
ół	-6319
▁faced	-6320
▁traits	-6321
▁estimates	-6322
-6	-6323
▁są	-6324
▁Self	-6325
▁reson	-6326
▁degradation	-6327
▁tolerance	-6328
▁Union	-6329
▁viability	-6330
elles	-6331
sz	-6332
▁differentiation	-6333
▁sat	-6334
▁intens	-6335
▁reveal	-6336
▁object	-6337
ondon	-6338
▁fluid	-6339
dictable	-6340
▁familiar	-6341
Sc	-6342
▁myth	-6343
▁upon	-6344
▁extend	-6345
▁possibilities	-6346
▁Creates	-6347
omy	-6348
▁liqu	-6349
comp	-6350
oday	-6351
elijk	-6352
photo	-6353
▁finding	-6354
IV	-6355
▁Out	-6356
unicip	-6357
▁bone	-6358
▁dire	-6359
▁game	-6360
factual	-6361
▁arithmetic	-6362
▁mé	-6363
size	-6364
▁clim	-6365
▁withdraw	-6366
▁acquisition	-6367
su	-6368
ecks	-6369
ires	-6370
▁textual	-6371
▁Theoretical	-6372
ori	-6373
afety	-6374
emy	-6375
offs	-6376
Initial	-6377
▁democ	-6378
▁acceler	-6379
▁Community	-6380
▁anch	-6381
▁victory	-6382
▁Ser	-6383
▁Many	-6384
▁square	-6385
▁algebra	-6386
▁vote	-6387
titive	-6388
▁displacement	-6389
▁reconstruction	-6390
IT	-6391
▁genes	-6392
▁sports	-6393
▁objectives	-6394
flow	-6395
35	-6396
Search	-6397
▁ancest	-6398
▁deficiency	-6399
▁reproductive	-6400
ahr	-6401
itance	-6402
▁rural	-6403
emia	-6404
▁dos	-6405
iterrane	-6406
▁critique	-6407
▁generations	-6408
▁implemented	-6409
gi	-6410
▁month	-6411
▁gran	-6412
▁minim	-6413
▁paper	-6414
▁removal	-6415
▁sn	-6416
ście	-6417
▁scales	-6418
activity	-6419
▁operating	-6420
▁Ze	-6421
▁tot	-6422
▁sobre	-6423
zioni	-6424
▁flav	-6425
▁Diese	-6426
▁female	-6427
▁touches	-6428
▁ot	-6429
fort	-6430
▁thous	-6431
▁devices	-6432
▁aesthetic	-6433
▁AND	-6434
▁vacc	-6435
▁Power	-6436
▁perspec	-6437
▁Internal	-6438
▁infinite	-6439
sm	-6440
▁trauma	-6441
odynamic	-6442
▁Fundamental	-6443
Tra	-6444
▁refers	-6445
▁conventional	-6446
▁Ir	-6447
amil	-6448
▁switch	-6449
▁accommod	-6450
▁technologies	-6451
send	-6452
strate	-6453
▁approval	-6454
▁persistent	-6455
▁concentrated	-6456
ün	-6457
▁send	-6458
ID	-6459
▁foundations	-6460
▁cold	-6461
odox	-6462
bolic	-6463
▁Address	-6464
▁reversal	-6465
▁Quantitative	-6466
hi	-6467
screen	-6468
▁magnetic	-6469
▁identical	-6470
▁Vir	-6471
othing	-6472
▁notes	-6473
workout	-6474
▁chains	-6475
conscious	-6476
▁enhanced	-6477
▁variance	-6478
▁Architect	-6479
EC	-6480
▁emergency	-6481
▁selective	-6482
▁notifications	-6483
▁Conn	-6484
▁Definition	-6485
niej	-6486
limited	-6487
▁Provide	-6488
▁collaboration	-6489
▁sono	-6490
▁nation	-6491
ilization	-6492
▁societies	-6493
owa	-6494
home	-6495
chron	-6496
▁draw	-6497
▁hour	-6498
▁young	-6499
Cultural	-6500
ped	-6501
▁Water	-6502
▁equilibrium	-6503
org	-6504
▁respons	-6505
▁heritage	-6506
▁Brit	-6507
▁equation	-6508
▁map	-6509
▁write	-6510
▁northern	-6511
reb	-6512
▁czy	-6513
:15	-6514
ala	-6515
retion	-6516
▁Middle	-6517
▁vector	-6518
▁reinfor	-6519
▁visible	-6520
ruption	-6521
▁coordinate	-6522
haps	-6523
turn	-6524
▁Original	-6525
eles	-6526
▁bei	-6527
istan	-6528
itions	-6529
▁track	-6530
urgency	-6531
dimensional	-6532
▁document	-6533
▁Performance	-6534
uck	-6535
anto	-6536
otic	-6537
▁sud	-6538
▁smart	-6539
▁happened	-6540
▁says	-6541
13	-6542
▁aligns	-6543
irds	-6544
▁Supreme	-6545
lij	-6546
▁fis	-6547
▁wat	-6548
steps	-6549
▁trial	-6550
erative	-6551
▁according	-6552
▁disorders	-6553
temporal	-6554
▁Relationship	-6555
▁Muslim	-6556
▁dynasty	-6557
▁settlement	-6558
osa	-6559
▁followed	-6560
▁syndrome	-6561
▁god	-6562
adian	-6563
▁Fran	-6564
▁fabric	-6565
▁directions	-6566
-15	-6567
erman	-6568
life	-6569
▁cla	-6570
racts	-6571
▁sind	-6572
▁toxic	-6573
▁momentum	-6574
eb	-6575
▁Cri	-6576
▁Persian	-6577
iterranean	-6578
abs	-6579
pped	-6580
▁locations	-6581
goal	-6582
▁proceed	-6583
▁Maintain	-6584
entives	-6585
▁reputation	-6586
▁justification	-6587
amine	-6588
▁receive	-6589
atie	-6590
▁cha	-6591
▁ign	-6592
▁orb	-6593
▁gives	-6594
▁taking	-6595
▁Demographic	-6596
▁clarification	-6597
Pre	-6598
rong	-6599
iforn	-6600
▁Mixed	-6601
▁obligations	-6602
distance	-6603
▁worse	-6604
▁looking	-6605
▁transpar	-6606
▁load	-6607
▁vast	-6608
acific	-6609
▁default	-6610
▁motivations	-6611
pretation	-6612
▁elimination	-6613
atil	-6614
▁vic	-6615
▁heavy	-6616
▁Normal	-6617
▁Sea	-6618
▁session	-6619
▁abstract	-6620
▁eliminate	-6621
roy	-6622
ilt	-6623
▁correctly	-6624
▁executive	-6625
▁succession	-6626
zil	-6627
urt	-6628
keit	-6629
itt	-6630
ład	-6631
▁Actually	-6632
ommendation	-6633
▁durante	-6634
ba	-6635
zan	-6636
▁ocean	-6637
▁theorem	-6638
▁independently	-6639
33	-6640
▁San	-6641
WII	-6642
iatric	-6643
▁Based	-6644
▁Senate	-6645
aire	-6646
power	-6647
▁addresses	-6648
▁:	-6649
▁polar	-6650
▁metaphor	-6651
▁dysfunction	-6652
▁ethics	-6653
▁secular	-6654
▁congress	-6655
▁sustainable	-6656
▁velocity	-6657
medication	-6658
ils	-6659
chant	-6660
▁leaders	-6661
▁religion	-6662
mus	-6663
▁gluc	-6664
▁took	-6665
▁defend	-6666
etry	-6667
▁2010	-6668
▁tech	-6669
▁Ottoman	-6670
ią	-6671
▁Sal	-6672
▁beliefs	-6673
▁flexible	-6674
berg	-6675
▁wood	-6676
▁determined	-6677
▁ratios	-6678
▁persists	-6679
▁parameter	-6680
▁rationale	-6681
oi	-6682
entiment	-6683
▁opposite	-6684
tism	-6685
▁elev	-6686
▁mere	-6687
▁sole	-6688
▁Hindu	-6689
▁Bel	-6690
▁atmospheric	-6691
ieg	-6692
rought	-6693
▁excess	-6694
apid	-6695
sleep	-6696
▁Lower	-6697
rij	-6698
▁alert	-6699
▁royal	-6700
":[]}}]	-6701
▁wondering	-6702
85	-6703
▁Bay	-6704
▁mig	-6705
▁artist	-6706
▁artificial	-6707
itan	-6708
▁Sin	-6709
▁faith	-6710
▁surround	-6711
▁authorities	-6712
▁fib	-6713
ifying	-6714
▁distinctions	-6715
▁hosp	-6716
▁stay	-6717
▁thick	-6718
▁werden	-6719
▁statements	-6720
▁interference	-6721
▁adult	-6722
▁findings	-6723
▁leader	-6724
▁Seasonal	-6725
allet	-6726
▁projection	-6727
▁manipulation	-6728
▁skill	-6729
▁maritime	-6730
▁University	-6731
äch	-6732
▁Lu	-6733
▁roku	-6734
pected	-6735
▁existed	-6736
▁threats	-6737
det	-6738
▁Calc	-6739
mi	-6740
▁gram	-6741
▁evolve	-6742
arum	-6743
ropical	-6744
Cont	-6745
vert	-6746
party	-6747
▁espec	-6748
urgent	-6749
▁curve	-6750
▁starting	-6751
real	-6752
utory	-6753
▁burn	-6754
▁lookup	-6755
door	-6756
▁above	-6757
▁empire	-6758
▁president	-6759
putational	-6760
▁membership	-6761
▁dla	-6762
unicipal	-6763
▁coastal	-6764
▁expensive	-6765
▁appearance	-6766
▁attribution	-6767
▁considering	-6768
edy	-6769
las	-6770
▁easier	-6771
▁ur	-6772
▁try	-6773
▁instruments	-6774
▁demonstrating	-6775
cos	-6776
agen	-6777
▁Isra	-6778
▁controls	-6779
may	-6780
omial	-6781
▁Temperature	-6782
enen	-6783
iger	-6784
ífic	-6785
embly	-6786
▁drives	-6787
▁profit	-6788
▁Control	-6789
▁partially	-6790
▁recording	-6791
wood	-6792
elivery	-6793
itigation	-6794
▁Cognitive	-6795
Pri	-6796
chang	-6797
▁Revolution	-6798
ól	-6799
▁Spe	-6800
oyalty	-6801
▁waves	-6802
▁Philosoph	-6803
▁prioritiz	-6804
▁opportunity	-6805
nik	-6806
▁radical	-6807
▁presidential	-6808
tee	-6809
▁Fl	-6810
Domain	-6811
▁sharing	-6812
▁regulations	-6813
first	-6814
▁image	-6815
▁describe	-6816
▁organized	-6817
owych	-6818
▁ensure	-6819
▁stories	-6820
▁Reasoning	-6821
▁construct	-6822
▁Ce	-6823
audi	-6824
▁ant	-6825
▁kön	-6826
▁pict	-6827
▁inequality	-6828
Is	-6829
▁III	-6830
▁~10	-6831
▁pron	-6832
ureauc	-6833
ifornia	-6834
▁payment	-6835
▁currency	-6836
▁discourse	-6837
▁reporting	-6838
PS	-6839
▁viral	-6840
▁During	-6841
▁dealing	-6842
▁Material	-6843
▁enabling	-6844
▁restoration	-6845
▁variability	-6846
".	-6847
▁fuel	-6848
▁tons	-6849
▁accounting	-6850
▁incentives	-6851
GB	-6852
▁Prob	-6853
▁numerous	-6854
▁reducing	-6855
▁provisions	-6856
ctu	-6857
ares	-6858
▁Iran	-6859
▁fair	-6860
thodox	-6861
▁truly	-6862
▁rejection	-6863
▁correspond	-6864
from	-6865
▁Rob	-6866
atio	-6867
▁evolving	-6868
rump	-6869
▁Applic	-6870
▁constru	-6871
▁decomposition	-6872
▁lacks	-6873
illance	-6874
▁Republican	-6875
ham	-6876
▁dr	-6877
▁Enh	-6878
▁Large	-6879
▁minor	-6880
▁unity	-6881
▁Differ	-6882
▁voc	-6883
▁specialization	-6884
ativ	-6885
▁won	-6886
▁molecules	-6887
aurant	-6888
▁Statistical	-6889
▁Mediterranean	-6890
▁Air	-6891
angle	-6892
exist	-6893
)."},"	-6894
teness	-6895
▁Industry	-6896
▁dangerous	-6897
ís	-6898
tes	-6899
abul	-6900
▁adopted	-6901
isture	-6902
modern	-6903
'."}},"	-6904
▁injury	-6905
No	-6906
only	-6907
▁Phys	-6908
▁meet	-6909
iberate	-6910
200	-6911
ómo	-6912
znych	-6913
▁held	-6914
amination	-6915
▁included	-6916
▁precisely	-6917
▁constitutes	-6918
▁hot	-6919
▁below	-6920
▁pharmac	-6921
▁respond	-6922
▁departure	-6923
▁Line	-6924
atility	-6925
▁reactions	-6926
▁marginal	-6927
▁version	-6928
▁failures	-6929
ertainment	-6930
▁("	-6931
iding	-6932
▁oder	-6933
▁constrained	-6934
issions	-6935
strates	-6936
▁London	-6937
▁widely	-6938
▁gravit	-6939
▁varying	-6940
▁depression	-6941
oyal	-6942
ventory	-6943
▁Contra	-6944
ectivity	-6945
▁indicators	-6946
front	-6947
▁math	-6948
▁przez	-6949
▁largely	-6950
max	-6951
sw	-6952
uits	-6953
hesion	-6954
▁IS	-6955
pidem	-6956
▁Would	-6957
▁sales	-6958
▁attrib	-6959
▁enzyme	-6960
▁platforms	-6961
▁recipient	-6962
▁penetration	-6963
bru	-6964
abet	-6965
defined	-6966
▁mobile	-6967
2:	-6968
64	-6969
▁audio	-6970
▁green	-6971
▁agreement	-6972
oke	-6973
▁sein	-6974
tische	-6975
▁theoretically	-6976
uge	-6977
▁Rapid	-6978
▁attacks	-6979
1:	-6980
AN	-6981
well	-6982
alarm	-6983
ensch	-6984
▁waste	-6985
▁exempl	-6986
tico	-6987
▁lifes	-6988
▁medium	-6989
▁Continu	-6990
▁monarch	-6991
reply	-6992
▁2020	-6993
cedent	-6994
different	-6995
Geographic	-6996
▁centralized	-6997
▁ech	-6998
MM	-6999
▁island	-7000
▁scaling	-7001
gram	-7002
▁six	-7003
▁fewer	-7004
▁script	-7005
▁supporting	-7006
hot	-7007
▁schedule	-7008
▁representing	-7009
▁stratification	-7010
oma	-7011
▁gi	-7012
▁ih	-7013
▁opin	-7014
▁caused	-7015
▁offers	-7016
▁captures	-7017
EN	-7018
▁Mc	-7019
eden	-7020
▁fra	-7021
amples	-7022
radual	-7023
▁Protest	-7024
inger	-7025
▁pragm	-7026
▁focuses	-7027
▁equations	-7028
▁Scale	-7029
▁older	-7030
▁aan	-7031
▁virt	-7032
▁fit	-7033
▁detect	-7034
▁office	-7035
▁exclusion	-7036
ked	-7037
net	-7038
▁wur	-7039
▁mant	-7040
▁Polish	-7041
personal	-7042
▁student	-7043
CC	-7044
▁rise	-7045
▁highest	-7046
▁advancement	-7047
▁Classification	-7048
▁automatic	-7049
rog	-7050
czeg	-7051
uese	-7052
▁ble	-7053
▁Colonial	-7054
▁arguments	-7055
▁investigation	-7056
▁rom	-7057
▁east	-7058
▁August	-7059
keep	-7060
▁dop	-7061
▁sua	-7062
▁(200	-7063
▁battle	-7064
child	-7065
▁worth	-7066
▁feeding	-7067
▁translate	-7068
eme	-7069
▁Moderate	-7070
gar	-7071
▁accountability	-7072
▁dietary	-7073
▁protect	-7074
▁samples	-7075
▁elevation	-7076
-17	-7077
▁doing	-7078
titudes	-7079
call	-7080
▁adapted	-7081
▁communic	-7082
▁extremely	-7083
▁exploration	-7084
meal	-7085
▁Je	-7086
etal	-7087
▁recall	-7088
▁Australia	-7089
▁contradict	-7090
▁ru	-7091
▁189	-7092
▁Liter	-7093
▁priorities	-7094
34	-7095
▁Women	-7096
▁minority	-7097
▁Treatment	-7098
▁circulation	-7099
peror	-7100
▁abol	-7101
▁died	-7102
▁privacy	-7103
▁procedure	-7104
▁middle	-7105
ricultural	-7106
▁agreements	-7107
▁modifications	-7108
uan	-7109
▁York	-7110
▁received	-7111
▁distinctive	-7112
▁flag	-7113
▁superiority	-7114
ump	-7115
▁ni	-7116
▁acts	-7117
▁compati	-7118
▁predictable	-7119
win	-7120
▁hat	-7121
▁measurable	-7122
ker	-7123
▁Pat	-7124
iert	-7125
building	-7126
▁pregnancy	-7127
fall	-7128
▁difer	-7129
▁patron	-7130
ril	-7131
▁theat	-7132
▁propri	-7133
otyp	-7134
elihood	-7135
▁Target	-7136
▁member	-7137
▁drivers	-7138
ną	-7139
overty	-7140
▁reflected	-7141
▁deployment	-7142
▁legislation	-7143
▁programming	-7144
▁congressional	-7145
aint	-7146
scop	-7147
ietal	-7148
▁progressive	-7149
▁Emphasize	-7150
▁hierarchical	-7151
Ec	-7152
SA	-7153
▁Stra	-7154
direct	-7155
▁doctr	-7156
▁indust	-7157
▁Possible	-7158
dependence	-7159
▁contradic	-7160
▁Scientific	-7161
7)	-7162
stead	-7163
▁disorder	-7164
▁indirect	-7165
▁probable	-7166
luet	-7167
ulin	-7168
▁bed	-7169
▁crime	-7170
▁earth	-7171
▁holds	-7172
ignificant	-7173
▁perceived	-7174
55	-7175
▁Bo	-7176
▁solar	-7177
luetooth	-7178
▁imaging	-7179
▁alliance	-7180
▁neighbor	-7181
▁algorithm	-7182
▁facilities	-7183
▁cascade	-7184
▁rotation	-7185
▁interesting	-7186
thes	-7187
idden	-7188
lected	-7189
▁obser	-7190
regation	-7191
dates	-7192
tia	-7193
icon	-7194
▁Circ	-7195
Retrie	-7196
▁perspectives	-7197
zec	-7198
Text	-7199
umes	-7200
▁Tax	-7201
▁ple	-7202
reminder	-7203
▁himself	-7204
▁efficacy	-7205
sci	-7206
stein	-7207
domain	-7208
ilarly	-7209
▁disappe	-7210
8)	-7211
tier	-7212
▁Mat	-7213
▁safe	-7214
▁Media	-7215
▁conquest	-7216
oding	-7217
▁California	-7218
▁Sat	-7219
▁tree	-7220
▁dispar	-7221
▁observations	-7222
ęd	-7223
▁san	-7224
▁fusion	-7225
▁viable	-7226
▁Similar	-7227
aten	-7228
▁spar	-7229
ashing	-7230
▁credi	-7231
zed	-7232
faces	-7233
yptian	-7234
▁least	-7235
▁pieces	-7236
▁Northern	-7237
olo	-7238
▁Pa	-7239
▁dose	-7240
▁losses	-7241
▁housing	-7242
ache	-7243
ounding	-7244
Cre	-7245
tiques	-7246
▁inside	-7247
uje	-7248
▁mainstream	-7249
▁projections	-7250
bar	-7251
▁vide	-7252
ws	-7253
▁wild	-7254
ibration	-7255
▁teaching	-7256
▁comparing	-7257
▁gradually	-7258
▁relevance	-7259
cht	-7260
▁zo	-7261
▁taxes	-7262
▁veget	-7263
▁household	-7264
▁reception	-7265
▁pH	-7266
▁City	-7267
▁Trump	-7268
ometric	-7269
▁weapons	-7270
▁metabolism	-7271
▁coordinated	-7272
▁uit	-7273
erson	-7274
▁bonds	-7275
▁mię	-7276
Americ	-7277
▁enhance	-7278
itely	-7279
▁które	-7280
▁effort	-7281
▁indicating	-7282
22	-7283
MS	-7284
▁var	-7285
▁Alex	-7286
enario	-7287
▁border	-7288
exp	-7289
multi	-7290
▁Canada	-7291
▁commerce	-7292
▁punishment	-7293
éri	-7294
▁disputes	-7295
IN	-7296
ictor	-7297
▁bring	-7298
▁roots	-7299
▁sensory	-7300
▁ball	-7301
▁heter	-7302
▁casual	-7303
▁meant	-7304
▁agency	-7305
▁clarify	-7306
adas	-7307
▁Use	-7308
oster	-7309
ovascular	-7310
▁Security	-7311
vious	-7312
▁bank	-7313
agnetic	-7314
▁carries	-7315
▁intermediate	-7316
When	-7317
ogue	-7318
▁choose	-7319
▁resist	-7320
▁focusing	-7321
▁modernization	-7322
▁(3	-7323
▁dz	-7324
itud	-7325
pack	-7326
▁put	-7327
inery	-7328
▁diffusion	-7329
▁guidelines	-7330
▁innovations	-7331
▁clust	-7332
▁repair	-7333
▁withdrawal	-7334
data	-7335
▁Fil	-7336
Email	-7337
▁sudden	-7338
▁Genetic	-7339
▁buildings	-7340
anu	-7341
▁sty	-7342
▁Group	-7343
▁rigid	-7344
▁remarkable	-7345
▁participants	-7346
▁methodologies	-7347
▁Brazil	-7348
▁dissol	-7349
erational	-7350
▁instrument	-7351
▁recognizing	-7352
ervation	-7353
asurement	-7354
zyst	-7355
▁distor	-7356
▁stance	-7357
▁indicate	-7358
het	-7359
▁waar	-7360
▁declar	-7361
▁worked	-7362
▁rapidly	-7363
7%	-7364
oon	-7365
▁Super	-7366
ried	-7367
-30	-7368
non	-7369
lege	-7370
▁bin	-7371
▁Spain	-7372
itors	-7373
▁annual	-7374
akt	-7375
▁Later	-7376
▁March	-7377
cut	-7378
▁mol	-7379
▁Serv	-7380
urring	-7381
▁loops	-7382
▁narra	-7383
▁override	-7384
▁sequential	-7385
today	-7386
Unique	-7387
▁setup	-7388
3%	-7389
▁180	-7390
▁foss	-7391
▁marked	-7392
▁inheritance	-7393
ef	-7394
▁Eng	-7395
▁fir	-7396
omorrow	-7397
▁navigate	-7398
aba	-7399
ece	-7400
pose	-7401
vest	-7402
▁bul	-7403
▁monopol	-7404
▁sizes	-7405
▁Business	-7406
▁treatments	-7407
▁provin	-7408
▁managing	-7409
▁struggle	-7410
▁ces	-7411
▁terror	-7412
▁association	-7413
▁unpredictable	-7414
iał	-7415
▁Article	-7416
▁Pacific	-7417
▁breakthrough	-7418
▁2,	-7419
vision	-7420
▁dating	-7421
▁neutral	-7422
ails	-7423
cium	-7424
▁trials	-7425
erts	-7426
▁Ang	-7427
▁prep	-7428
▁vectors	-7429
▁resulting	-7430
Historical	-7431
▁fails	-7432
▁Quality	-7433
▁slavery	-7434
▁breathing	-7435
▁realities	-7436
▁transformed	-7437
▁consultation	-7438
▁Exper	-7439
▁Paris	-7440
▁remember	-7441
zt	-7442
▁22	-7443
▁reports	-7444
▁actively	-7445
▁suppression	-7446
??	-7447
bio	-7448
▁Sil	-7449
▁ranges	-7450
piratory	-7451
enaissance	-7452
▁systematically	-7453
▁films	-7454
▁Predic	-7455
▁electrical	-7456
▁chronological	-7457
-0.	-7458
bas	-7459
bus	-7460
▁outside	-7461
▁Portuguese	-7462
Target	-7463
linear	-7464
▁joint	-7465
▁virus	-7466
ilation	-7467
inement	-7468
zer	-7469
lder	-7470
field	-7471
▁nach	-7472
▁glass	-7473
▁soldi	-7474
playlist	-7475
▁exceptions	-7476
▁governments	-7477
▁initiatives	-7478
6)	-7479
▁Sw	-7480
▁Gre	-7481
▁egg	-7482
▁soci	-7483
hand	-7484
load	-7485
Enable	-7486
▁instance	-7487
▁300	-7488
▁qué	-7489
▁1930	-7490
▁fond	-7491
idental	-7492
▁paradigm	-7493
▁Biological	-7494
agan	-7495
auti	-7496
bene	-7497
ulum	-7498
▁186	-7499
▁vent	-7500
▁preventing	-7501
OR	-7502
▁imag	-7503
▁sont	-7504
ategic	-7505
century	-7506
▁intended	-7507
▁signaling	-7508
▁satisfaction	-7509
3:	-7510
fast	-7511
▁Conc	-7512
▁dism	-7513
izations	-7514
▁lose	-7515
▁Rather	-7516
▁multipl	-7517
▁replication	-7518
▁band	-7519
▁oral	-7520
volume	-7521
abilistic	-7522
yw	-7523
orb	-7524
speed	-7525
▁felt	-7526
▁export	-7527
▁strain	-7528
▁players	-7529
▁fragmented	-7530
omal	-7531
▁Div	-7532
▁camera	-7533
▁playlist	-7534
opolitical	-7535
ador	-7536
▁0.0	-7537
▁Nor	-7538
▁Soc	-7539
▁Text	-7540
▁angle	-7541
▁Conserv	-7542
ED	-7543
osen	-7544
▁cave	-7545
▁leur	-7546
-8	-7547
▁swe	-7548
▁Gold	-7549
target	-7550
vertis	-7551
▁nuance	-7552
tivamente	-7553
▁produced	-7554
▁immigration	-7555
"}}	-7556
tein	-7557
▁flavor	-7558
▁photos	-7559
▁fraction	-7560
▁responsible	-7561
▁Esta	-7562
▁enzym	-7563
▁delete	-7564
▁Lo	-7565
▁Sy	-7566
▁Therm	-7567
▁habitat	-7568
▁β	-7569
eta	-7570
▁Bre	-7571
▁convers	-7572
▁mineral	-7573
▁Position	-7574
▁fragments	-7575
▁Development	-7576
rogen	-7577
▁Proper	-7578
▁southern	-7579
ypt	-7580
▁Four	-7581
▁arbitrary	-7582
oir	-7583
▁Part	-7584
▁recipe	-7585
▁fascinating	-7586
atal	-7587
▁resid	-7588
▁classes	-7589
▁faces	-7590
▁equally	-7591
▁teacher	-7592
▁economies	-7593
▁(~	-7594
▁Atl	-7595
yroid	-7596
▁Combined	-7597
▁extension	-7598
OS	-7599
orter	-7600
▁międ	-7601
▁meters	-7602
▁sensor	-7603
▁purs	-7604
▁experienced	-7605
lung	-7606
▁Los	-7607
▁Franc	-7608
▁logistics	-7609
▁deliberate	-7610
▁achievement	-7611
▁Lou	-7612
▁branch	-7613
▁degree	-7614
Temporal	-7615
▁fix	-7616
esian	-7617
abulary	-7618
celsius	-7619
▁letter	-7620
ńsk	-7621
▁Ein	-7622
▁brid	-7623
▁loop	-7624
▁After	-7625
▁erosion	-7626
▁Effectiveness	-7627
ET	-7628
▁sing	-7629
▁Labor	-7630
▁Result	-7631
▁weakness	-7632
usual	-7633
▁Mechanistic	-7634
▁contributes	-7635
▁Sk	-7636
pril	-7637
▁ring	-7638
amento	-7639
▁decay	-7640
▁drift	-7641
▁szczeg	-7642
▁scatter	-7643
▁mutations	-7644
ellow	-7645
▁dance	-7646
▁fiscal	-7647
▁privile	-7648
CT	-7649
rat	-7650
▁requ	-7651
quency	-7652
▁stock	-7653
▁measured	-7654
▁recognize	-7655
ían	-7656
▁OR	-7657
▁500	-7658
▁noting	-7659
▁sacred	-7660
▁destroy	-7661
▁horizon	-7662
▁Commercial	-7663
organization	-7664
▁Rome	-7665
ilateral	-7666
▁reverse	-7667
▁identifies	-7668
typ	-7669
uer	-7670
▁Ep	-7671
▁symbols	-7672
▁connecting	-7673
If	-7674
▁ju	-7675
▁wp	-7676
ości	-7677
▁Gal	-7678
']	-7679
azi	-7680
▁fine	-7681
▁carry	-7682
▁pairs	-7683
▁police	-7684
▁sought	-7685
▁legally	-7686
▁glucose	-7687
▁possess	-7688
▁acknowledging	-7689
'."},"	-7690
▁generate	-7691
8:	-7692
9)	-7693
arden	-7694
▁Mars	-7695
▁able	-7696
▁span	-7697
▁channel	-7698
▁scientists	-7699
Am	-7700
reet	-7701
▁neur	-7702
▁Ancient	-7703
▁Council	-7704
▁Solution	-7705
▁introduced	-7706
ès	-7707
sim	-7708
ówn	-7709
▁Pen	-7710
▁deal	-7711
▁infer	-7712
▁reproduction	-7713
▁camb	-7714
▁preval	-7715
▁sounds	-7716
▁Network	-7717
▁famous	-7718
▁knowing	-7719
▁Only	-7720
▁seeing	-7721
▁Nov	-7722
▁causing	-7723
▁ion	-7724
▁alla	-7725
person	-7726
▁scene	-7727
▁advice	-7728
▁oversimpl	-7729
4)	-7730
▁cro	-7731
▁doub	-7732
▁coinc	-7733
▁merely	-7734
▁sectors	-7735
pres	-7736
▁fla	-7737
▁Start	-7738
▁naval	-7739
▁President	-7740
▁machinery	-7741
ga	-7742
iden	-7743
ois	-7744
▁ath	-7745
▁protocol	-7746
▁Protestant	-7747
rent	-7748
▁Case	-7749
▁Cold	-7750
▁dispers	-7751
historical	-7752
▁interconnected	-7753
We	-7754
▁~3	-7755
▁shapes	-7756
▁gravitational	-7757
oli	-7758
aires	-7759
ometers	-7760
▁Approach	-7761
burg	-7762
▁ghost	-7763
▁Het	-7764
▁artists	-7765
▁adaptive	-7766
▁estimate	-7767
▁equivalent	-7768
21	-7769
info	-7770
▁lab	-7771
▁	-7772
e	-7773
i	-7774
t	-7775
a	-7776
n	-7777
o	-7778
s	-7779
r	-7780
l	-7781
c	-7782
d	-7783
u	-7784
m	-7785
h	-7786
p	-7787
g	-7788
f	-7789
y	-7790
"	-7791
v	-7792
.	-7793
b	-7794
w	-7795
,	-7796
:	-7797
-	-7798
k	-7799
*	-7800
#	-7801
x	-7802
C	-7803
T	-7804
'	-7805
S	-7806
z	-7807
1	-7808
0	-7809
q	-7810
A	-7811
P	-7812
I	-7813
→	-7814
M	-7815
)	-7816
(	-7817
2	-7818
E	-7819
j	-7820
H	-7821
B	-7822
}	-7823
{	-7824
R	-7825
D	-7826
_	-7827
L	-7828
N	-7829
?	-7830
F	-7831
W	-7832
●	-7833
5	-7834
3	-7835
=	-7836
9	-7837
G	-7838
4	-7839
8	-7840
/	-7841
K	-7842
U	-7843
O	-7844
6	-7845
+	-7846
7	-7847
é	-7848
Q	-7849
V	-7850
[	-7851
]	-7852
◐	-7853
∴	-7854
ó	-7855
J	-7856
≈	-7857
○	-7858
ł	-7859
Y	-7860
─	-7861
%	-7862
✓	-7863
⟩	-7864
⟨	-7865
※	-7866
;	-7867
~	-7868
ą	-7869
>	-7870
├	-7871
⚠	-7872
ę	-7873
ż	-7874
`	-7875
ä	-7876
í	-7877
ś	-7878
ü	-7879
≠	-7880
×	-7881
Z	-7882
è	-7883
á	-7884
à	-7885
$	-7886
X	-7887
&	-7888
!	-7889
<	-7890
└	-7891
ć	-7892
ö	-7893
²	-7894
☑	-7895
|	-7896
₂	-7897
—	-7898
’	-7899
☐	-7900
°	-7901
^	-7902
ń	-7903
₁	-7904
ſ	-7905
ù	-7906
ñ	-7907
ú	-7908
¿	-7909
ê	-7910
ß	-7911
ā	-7912
↑	-7913
↓	-7914
“	-7915
”	-7916
₀	-7917
\	-7918
α	-7919
β	-7920
³	-7921
